const unsigned char model[] = {
  0x1c, 0x00, 0x00, 0x00, 0x54, 0x46, 0x4c, 0x33, 0x14, 0x00, 0x20, 0x00,
  0x1c, 0x00, 0x18, 0x00, 0x14, 0x00, 0x10, 0x00, 0x0c, 0x00, 0x00, 0x00,
  0x08, 0x00, 0x04, 0x00, 0x14, 0x00, 0x00, 0x00, 0x1c, 0x00, 0x00, 0x00,
  0x8c, 0x00, 0x00, 0x00, 0xe4, 0x00, 0x00, 0x00, 0x80, 0x27, 0x00, 0x00,
  0x90, 0x27, 0x00, 0x00, 0x58, 0x2d, 0x00, 0x00, 0x03, 0x00, 0x00, 0x00,
  0x01, 0x00, 0x00, 0x00, 0x10, 0x00, 0x00, 0x00, 0x00, 0x00, 0x0a, 0x00,
  0x10, 0x00, 0x0c, 0x00, 0x08, 0x00, 0x04, 0x00, 0x0a, 0x00, 0x00, 0x00,
  0x0c, 0x00, 0x00, 0x00, 0x1c, 0x00, 0x00, 0x00, 0x38, 0x00, 0x00, 0x00,
  0x0f, 0x00, 0x00, 0x00, 0x73, 0x65, 0x72, 0x76, 0x69, 0x6e, 0x67, 0x5f,
  0x64, 0x65, 0x66, 0x61, 0x75, 0x6c, 0x74, 0x00, 0x01, 0x00, 0x00, 0x00,
  0x04, 0x00, 0x00, 0x00, 0x9c, 0xff, 0xff, 0xff, 0x0a, 0x00, 0x00, 0x00,
  0x04, 0x00, 0x00, 0x00, 0x07, 0x00, 0x00, 0x00, 0x64, 0x65, 0x6e, 0x73,
  0x65, 0x5f, 0x34, 0x00, 0x01, 0x00, 0x00, 0x00, 0x04, 0x00, 0x00, 0x00,
  0x62, 0xd8, 0xff, 0xff, 0x04, 0x00, 0x00, 0x00, 0x07, 0x00, 0x00, 0x00,
  0x69, 0x6e, 0x70, 0x75, 0x74, 0x5f, 0x32, 0x00, 0x02, 0x00, 0x00, 0x00,
  0x34, 0x00, 0x00, 0x00, 0x04, 0x00, 0x00, 0x00, 0xdc, 0xff, 0xff, 0xff,
  0x0d, 0x00, 0x00, 0x00, 0x04, 0x00, 0x00, 0x00, 0x13, 0x00, 0x00, 0x00,
  0x43, 0x4f, 0x4e, 0x56, 0x45, 0x52, 0x53, 0x49, 0x4f, 0x4e, 0x5f, 0x4d,
  0x45, 0x54, 0x41, 0x44, 0x41, 0x54, 0x41, 0x00, 0x08, 0x00, 0x0c, 0x00,
  0x08, 0x00, 0x04, 0x00, 0x08, 0x00, 0x00, 0x00, 0x0c, 0x00, 0x00, 0x00,
  0x04, 0x00, 0x00, 0x00, 0x13, 0x00, 0x00, 0x00, 0x6d, 0x69, 0x6e, 0x5f,
  0x72, 0x75, 0x6e, 0x74, 0x69, 0x6d, 0x65, 0x5f, 0x76, 0x65, 0x72, 0x73,
  0x69, 0x6f, 0x6e, 0x00, 0x0e, 0x00, 0x00, 0x00, 0x98, 0x26, 0x00, 0x00,
  0x90, 0x26, 0x00, 0x00, 0x78, 0x26, 0x00, 0x00, 0xe8, 0x25, 0x00, 0x00,
  0xd8, 0x24, 0x00, 0x00, 0xc8, 0x21, 0x00, 0x00, 0xb8, 0x01, 0x00, 0x00,
  0xa8, 0x00, 0x00, 0x00, 0xa0, 0x00, 0x00, 0x00, 0x98, 0x00, 0x00, 0x00,
  0x90, 0x00, 0x00, 0x00, 0x88, 0x00, 0x00, 0x00, 0x68, 0x00, 0x00, 0x00,
  0x04, 0x00, 0x00, 0x00, 0x0e, 0xd9, 0xff, 0xff, 0x04, 0x00, 0x00, 0x00,
  0x54, 0x00, 0x00, 0x00, 0x0c, 0x00, 0x00, 0x00, 0x08, 0x00, 0x0e, 0x00,
  0x08, 0x00, 0x04, 0x00, 0x08, 0x00, 0x00, 0x00, 0x10, 0x00, 0x00, 0x00,
  0x24, 0x00, 0x00, 0x00, 0x00, 0x00, 0x06, 0x00, 0x08, 0x00, 0x04, 0x00,
  0x06, 0x00, 0x00, 0x00, 0x04, 0x00, 0x00, 0x00, 0x00, 0x00, 0x00, 0x00,
  0x00, 0x00, 0x0a, 0x00, 0x10, 0x00, 0x0c, 0x00, 0x08, 0x00, 0x04, 0x00,
  0x0a, 0x00, 0x00, 0x00, 0x02, 0x00, 0x00, 0x00, 0x02, 0x00, 0x00, 0x00,
  0x04, 0x00, 0x00, 0x00, 0x06, 0x00, 0x00, 0x00, 0x32, 0x2e, 0x31, 0x35,
  0x2e, 0x30, 0x00, 0x00, 0x6e, 0xd9, 0xff, 0xff, 0x04, 0x00, 0x00, 0x00,
  0x10, 0x00, 0x00, 0x00, 0x31, 0x2e, 0x35, 0x2e, 0x30, 0x00, 0x00, 0x00,
  0x00, 0x00, 0x00, 0x00, 0x00, 0x00, 0x00, 0x00, 0x6c, 0xd4, 0xff, 0xff,
  0x70, 0xd4, 0xff, 0xff, 0x74, 0xd4, 0xff, 0xff, 0x78, 0xd4, 0xff, 0xff,
  0x9a, 0xd9, 0xff, 0xff, 0x04, 0x00, 0x00, 0x00, 0x00, 0x01, 0x00, 0x00,
  0xa4, 0xdc, 0xc5, 0x3d, 0xb7, 0x37, 0x5f, 0xbe, 0x06, 0xac, 0x15, 0xbe,
  0xa9, 0xd8, 0xf6, 0x3e, 0x9b, 0xe1, 0x09, 0x3d, 0x6b, 0x58, 0xad, 0x3e,
  0x5f, 0xcb, 0xff, 0xbe, 0x19, 0x2b, 0xa3, 0xbd, 0x03, 0x30, 0x11, 0x3f,
  0xb5, 0x67, 0x4f, 0xbe, 0xff, 0x4d, 0x90, 0xbd, 0x71, 0x11, 0xf9, 0x3e,
  0xe9, 0x3e, 0x73, 0xbe, 0x60, 0x6b, 0x0b, 0x3d, 0x8a, 0x8d, 0x1a, 0xbf,
  0xd0, 0xfd, 0x88, 0xbe, 0xac, 0xd4, 0xf0, 0x3e, 0x5c, 0x39, 0xa8, 0xbe,
  0xe3, 0xde, 0x41, 0xbe, 0x53, 0x37, 0xc0, 0x3e, 0x94, 0xa2, 0xac, 0x3d,
  0x59, 0x33, 0x0b, 0x3f, 0x78, 0xf1, 0x30, 0xbf, 0xce, 0x72, 0x59, 0xbe,
  0x6c, 0x43, 0xea, 0x3d, 0xfd, 0x2f, 0xaf, 0xbe, 0x1a, 0x7d, 0x84, 0x3e,
  0x73, 0xfc, 0xbb, 0x3e, 0xd7, 0x68, 0xe2, 0x3e, 0xac, 0x78, 0x80, 0xbe,
  0x96, 0x52, 0x5e, 0xbe, 0x31, 0x5e, 0xc3, 0xbe, 0x34, 0x4f, 0x1b, 0xbf,
  0x8f, 0xc1, 0x0e, 0xbf, 0x8a, 0xfe, 0x86, 0xbe, 0xfd, 0x00, 0x14, 0xbf,
  0x97, 0x70, 0x35, 0xbf, 0x5b, 0x64, 0x6c, 0x3e, 0x3d, 0x84, 0xab, 0x3e,
  0xd0, 0xa3, 0xc4, 0xbe, 0xcf, 0xba, 0xc6, 0xbe, 0x08, 0xe4, 0x24, 0x3d,
  0x72, 0x0b, 0x20, 0x3f, 0x70, 0x16, 0x53, 0x3d, 0x3d, 0x81, 0x01, 0xbf,
  0x7f, 0xa4, 0xb0, 0xbe, 0xa4, 0x5c, 0x0c, 0xbd, 0xe6, 0x3a, 0xef, 0x3e,
  0x37, 0xdb, 0xb2, 0xbd, 0xa6, 0x0a, 0x2d, 0xbe, 0xf6, 0xac, 0x81, 0x3e,
  0x22, 0x58, 0xa7, 0xbe, 0x41, 0xa0, 0x92, 0xbe, 0x9d, 0x3e, 0xd6, 0xbe,
  0x9e, 0x21, 0x00, 0x3f, 0x70, 0x53, 0x48, 0xbe, 0x7c, 0x3d, 0x35, 0x3d,
  0x0e, 0xa5, 0x6f, 0xbc, 0x53, 0x14, 0x2b, 0xbf, 0x03, 0x4d, 0xcb, 0xbe,
  0x22, 0xf9, 0xf5, 0x3d, 0xfb, 0xfc, 0x17, 0x3f, 0xb1, 0xa5, 0x97, 0x3e,
  0xa8, 0x14, 0xd9, 0x3e, 0xa6, 0xda, 0xff, 0xff, 0x04, 0x00, 0x00, 0x00,
  0x00, 0x20, 0x00, 0x00, 0x00, 0xbd, 0xc5, 0xbd, 0x4a, 0x65, 0x23, 0xbe,
  0x07, 0x15, 0x19, 0x3f, 0xd3, 0xf3, 0x8f, 0xbe, 0x61, 0xc5, 0x55, 0x3c,
  0xec, 0x06, 0x0f, 0x3e, 0x00, 0x2e, 0x02, 0x3c, 0xd8, 0x10, 0x8b, 0xbd,
  0xe0, 0xf2, 0x0c, 0x3e, 0xf5, 0x07, 0xe0, 0x3e, 0x13, 0xa1, 0x02, 0xbe,
  0x4a, 0x09, 0xa2, 0x3d, 0xdd, 0x77, 0x99, 0x3e, 0x5a, 0xb0, 0x7b, 0x3e,
  0x41, 0x9a, 0xe4, 0x3e, 0x29, 0x34, 0xd7, 0xbe, 0x82, 0x5f, 0x14, 0xbf,
  0xa9, 0xdb, 0x66, 0xbd, 0xcd, 0x8e, 0xa4, 0x3e, 0x1e, 0xd0, 0x11, 0x3d,
  0x1d, 0x77, 0xea, 0x3c, 0x77, 0x3d, 0x23, 0x3e, 0x25, 0x38, 0x99, 0x3e,
  0xfd, 0x33, 0xd4, 0xbe, 0x14, 0xed, 0x46, 0xbe, 0x24, 0x86, 0xf4, 0xbe,
  0xdf, 0x2b, 0xaa, 0xbe, 0x00, 0x1b, 0x27, 0x3c, 0xdc, 0x33, 0x6f, 0xbe,
  0x24, 0x84, 0x50, 0x3e, 0x1d, 0x26, 0x86, 0x3d, 0x3f, 0x1c, 0x32, 0xbd,
  0x05, 0x83, 0x60, 0xbd, 0xdc, 0xdf, 0xc6, 0xbd, 0xa4, 0x1e, 0x63, 0x3e,
  0xd6, 0x3e, 0xba, 0xbe, 0xc0, 0x07, 0x07, 0xbf, 0x92, 0x6a, 0xd3, 0x3c,
  0xdf, 0x92, 0x58, 0x3e, 0xa7, 0xfc, 0xca, 0xbe, 0xeb, 0x79, 0x9e, 0x3e,
  0xa8, 0xfa, 0xde, 0x3d, 0x1f, 0x00, 0x20, 0x3d, 0xee, 0x59, 0xbe, 0xbe,
  0x54, 0x1b, 0x26, 0x3e, 0x10, 0xb4, 0x17, 0x3c, 0xb8, 0x14, 0xf8, 0xbe,
  0x4a, 0x9f, 0x02, 0xbf, 0x8b, 0x28, 0xc7, 0xbe, 0xe0, 0xfc, 0xec, 0xbc,
  0x80, 0x96, 0xb4, 0x3d, 0x1a, 0xdb, 0x60, 0xbd, 0x5a, 0xc1, 0x45, 0x3e,
  0xae, 0x8c, 0xbd, 0xbe, 0x77, 0x1b, 0x2f, 0xbc, 0x81, 0x74, 0x33, 0x3e,
  0x14, 0xa0, 0x58, 0x3e, 0x81, 0x19, 0xf8, 0xbe, 0x14, 0x08, 0x41, 0xbe,
  0x9f, 0x19, 0x96, 0x3e, 0xb3, 0x6d, 0xb0, 0x3e, 0x02, 0x3a, 0xf9, 0x3d,
  0x2c, 0xdc, 0x66, 0xbe, 0x41, 0x40, 0x1a, 0x3d, 0xe4, 0x45, 0x4d, 0x3e,
  0x9b, 0x4d, 0xac, 0xbe, 0x07, 0xc6, 0x09, 0x3f, 0xce, 0x02, 0x37, 0x3e,
  0x5e, 0xea, 0x29, 0xbe, 0x68, 0x15, 0xac, 0x3d, 0x9c, 0xa7, 0x05, 0xbe,
  0xe8, 0xbb, 0x89, 0x3d, 0x4c, 0xa2, 0x27, 0xbe, 0x59, 0x6a, 0xf2, 0xbc,
  0xa8, 0x09, 0x50, 0xbe, 0xe0, 0xc0, 0x03, 0x3e, 0xbb, 0x8f, 0xaf, 0xbd,
  0x25, 0x1b, 0x86, 0xbd, 0xc2, 0x35, 0x08, 0x3d, 0xd7, 0x85, 0xc8, 0xbe,
  0xf2, 0x8f, 0x05, 0xbe, 0xbf, 0x95, 0x5b, 0x3e, 0xe4, 0x57, 0x3b, 0x3e,
  0xb4, 0x14, 0x32, 0xbe, 0xc0, 0x62, 0xb2, 0x3d, 0x89, 0x81, 0xdf, 0xbc,
  0x06, 0xe7, 0x86, 0x3e, 0x19, 0x8a, 0x0a, 0xbd, 0x70, 0x9f, 0x03, 0xbe,
  0xe5, 0xab, 0x0f, 0xbd, 0xab, 0xfb, 0x7e, 0xbe, 0x88, 0x56, 0xb5, 0xbd,
  0xb4, 0x8f, 0x3d, 0x3e, 0x34, 0x69, 0x2a, 0x3e, 0xb5, 0x49, 0x94, 0x3e,
  0xdb, 0xdf, 0x1a, 0x3e, 0x44, 0x13, 0xaa, 0x3e, 0x53, 0x49, 0x63, 0xbe,
  0x60, 0x91, 0x69, 0xbd, 0xb6, 0x5c, 0xa3, 0xbe, 0xbe, 0x14, 0xf0, 0x3c,
  0x0e, 0xf6, 0x11, 0x3e, 0xc9, 0x7e, 0x9f, 0x3e, 0xfa, 0x43, 0x99, 0xbe,
  0x29, 0x2d, 0x58, 0x3e, 0xeb, 0x3b, 0x96, 0x3e, 0xcb, 0x58, 0x94, 0x3e,
  0xe8, 0xd6, 0xda, 0xbe, 0x30, 0x16, 0xff, 0x3d, 0xe0, 0x83, 0xa8, 0xbd,
  0xaf, 0x8a, 0x37, 0xbe, 0x03, 0x24, 0xbe, 0xbe, 0xbd, 0x84, 0xc1, 0xbe,
  0x80, 0x24, 0x5c, 0xbe, 0x30, 0x2a, 0x2c, 0x3e, 0xd3, 0xa4, 0x86, 0x3e,
  0xaa, 0x30, 0xb5, 0x3e, 0xab, 0x53, 0x55, 0x3b, 0x34, 0x9e, 0x3a, 0x3e,
  0xbd, 0x54, 0x4c, 0x3d, 0xcf, 0xbe, 0x92, 0x3e, 0xec, 0xcb, 0xff, 0xbd,
  0x90, 0xfd, 0x89, 0x3d, 0xce, 0xe8, 0xa4, 0x3e, 0xe4, 0xec, 0x0d, 0x3e,
  0xc4, 0x3f, 0x7f, 0xbe, 0x84, 0x2d, 0x1a, 0x3e, 0x82, 0xfc, 0xa0, 0x3e,
  0x80, 0xc2, 0x9e, 0x3c, 0xa0, 0x92, 0x0a, 0xbd, 0x70, 0xe8, 0x32, 0xbd,
  0x80, 0xbe, 0x37, 0xbc, 0xc4, 0x2a, 0x43, 0xbe, 0x00, 0x22, 0xf6, 0x3c,
  0x84, 0x03, 0x24, 0x3e, 0x14, 0x94, 0x3f, 0xbe, 0xb0, 0x38, 0x3e, 0x3e,
  0x88, 0xba, 0x83, 0xbd, 0x50, 0x42, 0xd3, 0x3d, 0x40, 0x95, 0xe6, 0xbc,
  0x34, 0x2c, 0x5b, 0xbe, 0xe8, 0x38, 0x2e, 0x3e, 0xec, 0x73, 0x65, 0xbe,
  0xb0, 0x2f, 0x96, 0xbd, 0x70, 0x88, 0x69, 0xbd, 0xe8, 0x0d, 0x48, 0x3e,
  0x20, 0x8f, 0xde, 0x3d, 0x80, 0xc5, 0x07, 0x3e, 0x84, 0xbb, 0x31, 0xbe,
  0x24, 0xc7, 0x13, 0xbe, 0x50, 0xb9, 0x4e, 0x3d, 0x34, 0xa0, 0x67, 0xbe,
  0xd0, 0x36, 0xb4, 0xbd, 0x20, 0x98, 0xa2, 0xbc, 0xc4, 0x9b, 0x6f, 0x3e,
  0x00, 0x06, 0xe1, 0xbd, 0xc0, 0x7e, 0x10, 0x3c, 0x38, 0xcb, 0x33, 0x3e,
  0xc0, 0x71, 0x5e, 0xbe, 0x30, 0x06, 0x3a, 0xbe, 0xc4, 0x72, 0x37, 0xbe,
  0x70, 0x54, 0xc8, 0x3d, 0x60, 0x14, 0x28, 0x3e, 0xd0, 0x69, 0x50, 0xbd,
  0xc8, 0xbf, 0x25, 0xbe, 0x48, 0x8e, 0xeb, 0x3d, 0x28, 0x85, 0x9e, 0x3d,
  0x90, 0xd9, 0x70, 0x3d, 0x70, 0xcd, 0x79, 0x3d, 0x80, 0xc1, 0xab, 0x3b,
  0xd0, 0x2c, 0x79, 0x3d, 0xec, 0x38, 0x30, 0xbe, 0xd8, 0x79, 0x1c, 0x3e,
  0x60, 0x25, 0x1d, 0xbd, 0x00, 0x0e, 0x08, 0xbd, 0xd8, 0x92, 0x53, 0x3e,
  0x20, 0x83, 0x51, 0xbd, 0x20, 0x28, 0xf2, 0x3c, 0x28, 0x31, 0xea, 0x3d,
  0x74, 0x0e, 0x5e, 0xbe, 0x2c, 0xad, 0x08, 0xbe, 0x18, 0x82, 0x94, 0x3d,
  0x88, 0xbb, 0x80, 0x3d, 0x94, 0xc2, 0x26, 0xbe, 0x90, 0x83, 0x1f, 0xbd,
  0x0c, 0x98, 0x1f, 0xbe, 0xd0, 0x78, 0xb2, 0xbd, 0x80, 0x74, 0xa0, 0xbd,
  0xe4, 0x2b, 0x71, 0x3e, 0x5c, 0x5e, 0x43, 0xbe, 0xb8, 0x4f, 0xe5, 0xbd,
  0x80, 0xfb, 0x4e, 0xbe, 0x40, 0xb6, 0x5d, 0xbc, 0x9c, 0x75, 0x6c, 0xbe,
  0xa2, 0xd4, 0xe8, 0x3e, 0xcc, 0x0f, 0x68, 0xbe, 0x88, 0x61, 0xbb, 0x3d,
  0xd0, 0xbf, 0xaa, 0xbd, 0x58, 0x29, 0x9c, 0x3d, 0xc8, 0x63, 0xc2, 0x3d,
  0xe6, 0xeb, 0xf2, 0xbd, 0x06, 0x3a, 0x4b, 0x3e, 0x6b, 0x00, 0x09, 0xbe,
  0x77, 0x85, 0x4c, 0x3e, 0x60, 0x8b, 0xa1, 0x3e, 0xc1, 0x45, 0x8d, 0x3e,
  0xff, 0xef, 0xb7, 0x3e, 0x62, 0xca, 0x15, 0xbf, 0x9d, 0x63, 0x56, 0xbe,
  0x0e, 0x4b, 0x30, 0xbe, 0xd6, 0x78, 0x62, 0x3a, 0x9f, 0x97, 0xbf, 0x3d,
  0xf7, 0x0b, 0x54, 0xbe, 0x89, 0xaa, 0x82, 0x3e, 0xaf, 0x46, 0xbf, 0x3e,
  0xc8, 0x39, 0x9e, 0xbe, 0x20, 0x1e, 0x60, 0x3d, 0xe8, 0x7f, 0xd6, 0xbe,
  0x90, 0xe3, 0xa0, 0xbe, 0x20, 0x21, 0x94, 0xbc, 0x00, 0xd1, 0xb8, 0xbc,
  0x34, 0x92, 0x46, 0x3e, 0xd4, 0xf8, 0x1b, 0xbd, 0x00, 0x19, 0xb0, 0x3e,
  0xfb, 0x91, 0x9b, 0x3e, 0x24, 0x27, 0x26, 0xbe, 0x30, 0x53, 0x90, 0x3d,
  0xde, 0xc9, 0x99, 0xbe, 0x7c, 0x2a, 0x07, 0xbf, 0x33, 0xcf, 0x91, 0xbe,
  0xe7, 0x8a, 0x95, 0x3e, 0xf4, 0x25, 0xc5, 0xbd, 0x44, 0xa3, 0xf8, 0x3d,
  0x1c, 0xc4, 0xad, 0x3e, 0x3f, 0x44, 0xf9, 0xbc, 0x5d, 0x7d, 0xad, 0xbe,
  0x70, 0xa2, 0xe9, 0x3d, 0x17, 0x2e, 0xe5, 0xbc, 0xec, 0xef, 0xaf, 0xbe,
  0xb2, 0x0d, 0x08, 0xbf, 0x5e, 0x90, 0x9b, 0xbe, 0x08, 0x6e, 0xb8, 0xbd,
  0xd8, 0xbe, 0x05, 0xbe, 0x51, 0xf9, 0x45, 0x3d, 0x67, 0x49, 0x53, 0x3d,
  0xcd, 0x93, 0x48, 0xbe, 0x92, 0xe4, 0x48, 0xbd, 0xbe, 0x2e, 0x8c, 0xbd,
  0xdd, 0x9f, 0x65, 0xbd, 0x8d, 0xfe, 0x13, 0xbf, 0x08, 0x49, 0xcb, 0xbd,
  0xf8, 0x07, 0x89, 0x3e, 0x84, 0xef, 0xc5, 0x3e, 0x4b, 0x91, 0x57, 0x3e,
  0x48, 0x5e, 0x8b, 0xbd, 0x7a, 0xf2, 0xa7, 0x3e, 0x70, 0x37, 0xf5, 0xbd,
  0x55, 0x19, 0x06, 0xbf, 0x22, 0x3e, 0x1e, 0x3f, 0x43, 0x31, 0x96, 0xbd,
  0x5e, 0x76, 0x88, 0x3d, 0x90, 0xa9, 0x73, 0xbe, 0x58, 0xc8, 0xee, 0xbd,
  0x80, 0xb1, 0x30, 0xbd, 0xdd, 0x9c, 0xf2, 0x3d, 0xe5, 0xce, 0xf6, 0x3e,
  0xbf, 0x5e, 0x02, 0x3e, 0xd3, 0x24, 0xb1, 0x3e, 0x95, 0xf5, 0x3c, 0x3c,
  0x84, 0x13, 0xe4, 0xbc, 0x96, 0x8c, 0xb4, 0x3d, 0x5a, 0x28, 0xe2, 0xbe,
  0x20, 0x55, 0xba, 0xbd, 0x86, 0xd9, 0xef, 0xbd, 0xcc, 0x93, 0x3d, 0x3d,
  0xf0, 0xe7, 0x2e, 0x3d, 0xdf, 0xf7, 0x90, 0xbe, 0x18, 0x33, 0x7a, 0x3e,
  0xc1, 0x09, 0xb4, 0x3d, 0x2c, 0xf2, 0xf6, 0xbe, 0x7c, 0x5e, 0x21, 0x3e,
  0xec, 0x5d, 0xc2, 0xbc, 0xbd, 0x0c, 0x14, 0xbf, 0xa0, 0xe1, 0xd6, 0xbd,
  0x20, 0xf0, 0x4e, 0x3d, 0x80, 0x07, 0xb2, 0xbb, 0xac, 0x7c, 0x6e, 0x3e,
  0xeb, 0x58, 0x11, 0x3d, 0xc4, 0xb3, 0xa7, 0x3e, 0xcc, 0x34, 0xa2, 0xbe,
  0xc0, 0x69, 0x00, 0xbe, 0xee, 0x89, 0x48, 0xbe, 0xc7, 0x50, 0x41, 0xbe,
  0x98, 0x63, 0xee, 0xbd, 0xc6, 0x93, 0xce, 0xbd, 0x93, 0x83, 0x36, 0xbe,
  0x63, 0x0f, 0xa1, 0x3c, 0xad, 0x11, 0xb6, 0x3d, 0xa7, 0x2c, 0xf8, 0x3c,
  0x30, 0x3d, 0x62, 0xbe, 0x80, 0x45, 0xe8, 0x3d, 0x35, 0xd8, 0x6c, 0xbe,
  0xa0, 0xd7, 0xce, 0xbe, 0x13, 0xc4, 0x8d, 0xbe, 0xcb, 0x5d, 0xd5, 0xbe,
  0x34, 0x8d, 0x05, 0xbe, 0x6c, 0xb0, 0x3b, 0xbe, 0xca, 0x3b, 0x96, 0x3e,
  0xd2, 0x01, 0x3f, 0xbd, 0x3b, 0x98, 0x70, 0xbd, 0x21, 0xad, 0x81, 0xbd,
  0xf5, 0x63, 0x8f, 0x3e, 0x07, 0x07, 0x5c, 0x3e, 0x46, 0x2e, 0xe5, 0xbe,
  0x38, 0x2d, 0x0f, 0x3e, 0x94, 0xa2, 0xda, 0x3e, 0x4a, 0x82, 0x10, 0x3f,
  0xd7, 0x19, 0x1e, 0xbe, 0x6c, 0x17, 0x6c, 0xbe, 0x16, 0x87, 0x75, 0x3d,
  0x48, 0x52, 0x58, 0x3e, 0xd2, 0xd9, 0x6f, 0xbd, 0xcb, 0xdc, 0x1f, 0x3e,
  0x28, 0x73, 0xcf, 0xbd, 0x23, 0x58, 0x50, 0x3e, 0x10, 0xa1, 0x42, 0x3d,
  0xac, 0xa0, 0x6c, 0x3e, 0xe8, 0x34, 0xca, 0xbd, 0xa4, 0x68, 0x48, 0xbe,
  0xb2, 0xe5, 0xba, 0xbd, 0xc8, 0xb3, 0x50, 0xbe, 0xc5, 0x6a, 0x7a, 0x3e,
  0xb3, 0xe8, 0x25, 0xbd, 0x77, 0x77, 0xc7, 0xbd, 0x63, 0xd2, 0x3a, 0xbe,
  0xff, 0xe1, 0x36, 0x3e, 0x74, 0xf6, 0xe4, 0x3d, 0xce, 0x52, 0x87, 0xbd,
  0x08, 0x18, 0x7a, 0xbb, 0x01, 0x80, 0xc1, 0x3d, 0xef, 0x7f, 0x83, 0xbe,
  0x18, 0x73, 0x76, 0xbd, 0xd7, 0x4b, 0x44, 0xbd, 0x32, 0x42, 0xab, 0xbc,
  0x00, 0xa9, 0x60, 0xbe, 0xef, 0xdd, 0x6e, 0xbe, 0x68, 0xf7, 0x35, 0xbe,
  0x58, 0xc9, 0xb5, 0xbd, 0x18, 0x9d, 0xec, 0x3d, 0x18, 0xab, 0x83, 0x3d,
  0x2e, 0xe9, 0xe6, 0x3d, 0x42, 0x15, 0x04, 0xbe, 0x74, 0xf6, 0x81, 0x3e,
  0xf5, 0x89, 0x28, 0x3e, 0x60, 0xd8, 0x81, 0xbc, 0xd7, 0xc3, 0x32, 0x3e,
  0x9e, 0xe1, 0xc4, 0x3d, 0xe2, 0x4d, 0x84, 0xbe, 0xe5, 0x14, 0x65, 0xbc,
  0x75, 0x43, 0x73, 0x3d, 0xe7, 0x85, 0x9d, 0x3c, 0x53, 0x24, 0x0b, 0x3e,
  0xa8, 0xce, 0x67, 0x3b, 0x8b, 0x92, 0x43, 0x3e, 0xc8, 0xbb, 0xdd, 0xbd,
  0x44, 0x48, 0x76, 0xbe, 0x40, 0xd0, 0x75, 0xbe, 0xb0, 0xc4, 0x27, 0xbe,
  0x1c, 0x87, 0x51, 0x3e, 0xb0, 0x69, 0x08, 0xbd, 0xc8, 0x32, 0x4d, 0xbe,
  0x40, 0xeb, 0x5b, 0xbe, 0xea, 0x88, 0x62, 0x3e, 0x66, 0x97, 0xc1, 0xbb,
  0xc0, 0xd0, 0x35, 0x3e, 0x4e, 0x96, 0x83, 0xbe, 0x88, 0x6f, 0x64, 0xbe,
  0xdc, 0xc7, 0x44, 0xbe, 0x08, 0x2f, 0x33, 0xbe, 0x55, 0x03, 0x19, 0xbe,
  0x13, 0x3c, 0x48, 0x3e, 0xf0, 0xe9, 0x6f, 0x3d, 0xbc, 0xb3, 0x47, 0xbe,
  0xda, 0xd9, 0x40, 0xbe, 0x00, 0xa4, 0x67, 0xbd, 0x78, 0x01, 0xd9, 0x3e,
  0xce, 0xb9, 0x7b, 0xbe, 0x6e, 0x07, 0x23, 0x3e, 0xd3, 0xc2, 0xba, 0x3e,
  0xdc, 0x1e, 0x1b, 0xbe, 0x78, 0x48, 0xe1, 0x3d, 0x4c, 0xa4, 0x51, 0xbe,
  0x5f, 0x2d, 0xb4, 0x3c, 0x83, 0xc0, 0xaf, 0x3d, 0x92, 0x45, 0x2a, 0xbe,
  0xe5, 0x61, 0xe4, 0xbe, 0x35, 0xd3, 0xff, 0x3d, 0x81, 0x44, 0x50, 0x3d,
  0x4c, 0x96, 0x96, 0xbe, 0x88, 0xc4, 0xf9, 0x3e, 0x5d, 0x36, 0xf0, 0x3d,
  0xcc, 0x44, 0xae, 0x3e, 0x0b, 0xb2, 0x97, 0xbd, 0x12, 0xd6, 0x70, 0xbd,
  0x33, 0xe2, 0x84, 0x3e, 0x18, 0xcd, 0x62, 0xbe, 0x21, 0x2b, 0x9e, 0xbe,
  0x2e, 0x7f, 0x5d, 0x3e, 0x34, 0x11, 0x7e, 0x3e, 0x17, 0x61, 0x82, 0x3e,
  0xe3, 0xd1, 0x8f, 0xbc, 0x30, 0xc6, 0x4a, 0x3d, 0x88, 0xae, 0x54, 0x3e,
  0x90, 0x6e, 0xe5, 0x3d, 0xc6, 0x97, 0x87, 0xbd, 0x7b, 0x96, 0xe0, 0xbd,
  0x5f, 0xa0, 0xd1, 0xbd, 0x81, 0xdb, 0xaf, 0x3e, 0x1c, 0x76, 0x12, 0x3e,
  0xb6, 0xb6, 0xc4, 0x3e, 0xc2, 0x10, 0xb0, 0x3e, 0x49, 0x2d, 0xb4, 0xbc,
  0x34, 0x9b, 0x46, 0xbe, 0x22, 0xa3, 0xe3, 0x3e, 0x78, 0xf0, 0x11, 0xbe,
  0xf4, 0x8a, 0x59, 0xbe, 0x88, 0xee, 0x30, 0x3c, 0xaa, 0x6f, 0x62, 0xbe,
  0x00, 0xe1, 0x12, 0xbb, 0x18, 0xca, 0x3d, 0x3e, 0xd5, 0x22, 0x43, 0x3b,
  0x6c, 0x97, 0x87, 0xbe, 0xc9, 0xa0, 0xfe, 0x3e, 0x40, 0x63, 0x46, 0x3d,
  0xb0, 0xc0, 0xd4, 0xbd, 0x8a, 0x8d, 0x2b, 0x3e, 0x05, 0xe9, 0x8f, 0xbe,
  0x56, 0xc5, 0x05, 0x3e, 0x63, 0x9b, 0x23, 0xbe, 0x42, 0x1d, 0x23, 0x3e,
  0x18, 0x8a, 0x12, 0xba, 0xd3, 0x5d, 0xda, 0x3e, 0x18, 0x3c, 0xbc, 0x3d,
  0xfb, 0x6b, 0x8d, 0xbe, 0x44, 0xa8, 0x96, 0xbe, 0xc1, 0x26, 0x68, 0xbd,
  0x44, 0xf3, 0x46, 0xbe, 0x15, 0x8f, 0x03, 0x3d, 0x58, 0x67, 0x14, 0x3e,
  0xbb, 0xa7, 0x39, 0x3e, 0x46, 0x7a, 0x90, 0x3d, 0xe9, 0x24, 0xbc, 0xbc,
  0x80, 0xc2, 0xb7, 0xbd, 0xec, 0x8e, 0x48, 0xbe, 0xc0, 0x89, 0xab, 0xbd,
  0x90, 0xfa, 0x0d, 0xbd, 0x28, 0x9b, 0xfc, 0xbd, 0xed, 0xe7, 0xf2, 0xbd,
  0x9a, 0xb6, 0x4b, 0x3c, 0xd4, 0x71, 0x82, 0xbe, 0xc8, 0x7c, 0x58, 0xbe,
  0x42, 0x4e, 0xed, 0xbc, 0xc0, 0x49, 0x09, 0x3c, 0xe4, 0xc8, 0x83, 0xbd,
  0xe3, 0x81, 0x2a, 0x3d, 0x2f, 0x2b, 0x68, 0xbe, 0x44, 0x4b, 0x61, 0xbe,
  0x64, 0x1f, 0x36, 0x3e, 0xb9, 0x09, 0x5d, 0xbe, 0x70, 0x02, 0xd5, 0x3d,
  0xfc, 0x8b, 0x16, 0x3e, 0xb8, 0xa1, 0x0c, 0x3e, 0x98, 0x46, 0xfd, 0xbd,
  0x28, 0x56, 0xf5, 0xbd, 0xe0, 0x11, 0x4e, 0xbd, 0x30, 0x40, 0xe5, 0x3d,
  0x34, 0x48, 0x25, 0x3e, 0x28, 0xf8, 0x4e, 0xbe, 0xa9, 0xbc, 0xb8, 0x3d,
  0xf3, 0x3a, 0xd1, 0xbd, 0x40, 0xf8, 0x77, 0xbe, 0x1e, 0x7c, 0x24, 0xbe,
  0x88, 0x76, 0xa6, 0xbd, 0x51, 0x90, 0x82, 0xbe, 0xa8, 0x49, 0xd1, 0x3d,
  0x5d, 0x7f, 0x5a, 0x3c, 0x74, 0x08, 0x4d, 0x3e, 0x58, 0x9e, 0x1d, 0x3e,
  0xa4, 0xab, 0x40, 0x3e, 0x09, 0x64, 0x71, 0xbe, 0x44, 0x0a, 0x2b, 0xbe,
  0x6f, 0xb9, 0x99, 0x3d, 0x40, 0x5e, 0x11, 0xbe, 0xe0, 0xd7, 0xc0, 0x3d,
  0xb6, 0x86, 0x29, 0x3e, 0x00, 0xa3, 0x55, 0xbb, 0x83, 0xd0, 0xdc, 0x3d,
  0x00, 0x46, 0x65, 0xbe, 0x80, 0xc8, 0xf2, 0x3b, 0x96, 0x48, 0x4d, 0xbe,
  0x00, 0xe0, 0x27, 0x3d, 0x3a, 0x67, 0x82, 0xbe, 0x95, 0x1e, 0x44, 0xbe,
  0x61, 0x85, 0x2b, 0x3e, 0x80, 0x64, 0xff, 0x3d, 0x9c, 0x09, 0x6d, 0xbe,
  0xe0, 0x38, 0xef, 0x3c, 0x85, 0x20, 0xa2, 0x3d, 0x0e, 0x1a, 0x42, 0x3e,
  0xf8, 0xdd, 0xd2, 0x3c, 0x80, 0x03, 0x34, 0xbd, 0x44, 0x22, 0x72, 0xbe,
  0xf8, 0xdb, 0xce, 0xbd, 0xb1, 0xf5, 0xa1, 0xbe, 0x3f, 0xff, 0xf0, 0x3e,
  0xac, 0x14, 0x02, 0x3b, 0xe8, 0x2f, 0x8a, 0xbe, 0xf0, 0xe9, 0x80, 0xbd,
  0x00, 0x45, 0xcc, 0x3b, 0x2c, 0x77, 0x30, 0x3e, 0x06, 0x84, 0x29, 0xbe,
  0x76, 0x93, 0x90, 0x3e, 0xa8, 0x98, 0x00, 0x3e, 0x63, 0xfa, 0x50, 0x3d,
  0xf6, 0x98, 0xbc, 0x3d, 0xb2, 0x05, 0x3f, 0xbc, 0xe0, 0x6c, 0x74, 0x3e,
  0xd1, 0xac, 0xba, 0xbe, 0xc7, 0xfc, 0x14, 0xbc, 0x96, 0xfd, 0x3c, 0x3e,
  0x72, 0x54, 0x53, 0x3e, 0x02, 0xdd, 0x62, 0x3e, 0x6d, 0xb9, 0x5d, 0x3e,
  0x34, 0x6a, 0x8b, 0xbd, 0x03, 0x22, 0x76, 0x3e, 0xc6, 0x77, 0x86, 0xba,
  0x30, 0xf2, 0x3d, 0x3e, 0x49, 0xb0, 0xdd, 0xbe, 0x1d, 0x0e, 0x03, 0xbf,
  0x74, 0x07, 0x53, 0xbe, 0x50, 0x02, 0x7b, 0xbd, 0x04, 0xd3, 0x61, 0xbe,
  0xdd, 0xd0, 0x6f, 0x3e, 0x21, 0x9d, 0x3d, 0x3c, 0xe8, 0x17, 0x9e, 0x3e,
  0xbb, 0xd5, 0xdf, 0xbd, 0xf0, 0xd9, 0xa3, 0xbd, 0xff, 0x21, 0x42, 0x3c,
  0xf5, 0xe7, 0xad, 0xbe, 0x16, 0x22, 0xb4, 0x3d, 0x32, 0x67, 0x3d, 0xbe,
  0x21, 0x8f, 0xba, 0xbe, 0xb0, 0x2f, 0x4b, 0x3c, 0xeb, 0xf9, 0x9e, 0xbd,
  0xd6, 0x0d, 0x9d, 0x3e, 0xec, 0x25, 0x15, 0xbe, 0x54, 0xa8, 0x7b, 0xbe,
  0xac, 0xa1, 0x04, 0xbe, 0xc3, 0xc1, 0xba, 0xbe, 0x1b, 0x99, 0xc4, 0xbe,
  0x5a, 0x72, 0xae, 0xbe, 0xe0, 0x6b, 0x57, 0xbd, 0xc4, 0x37, 0x06, 0xbe,
  0xcc, 0x9a, 0xa8, 0x3e, 0xf4, 0xb4, 0x8f, 0xbd, 0x7d, 0xd6, 0x22, 0x3e,
  0x70, 0xf3, 0x0e, 0xbd, 0x25, 0xb4, 0x28, 0x3c, 0xfc, 0x37, 0xca, 0x3c,
  0xf5, 0xd3, 0x88, 0x3c, 0xd8, 0xb5, 0xa4, 0x3d, 0xa3, 0x67, 0x7f, 0xbc,
  0x7e, 0xc8, 0xdf, 0x3e, 0xc0, 0x86, 0x74, 0x3e, 0x28, 0x68, 0x30, 0xbe,
  0xc6, 0xd8, 0xe5, 0xbc, 0xd8, 0xee, 0x7b, 0xbe, 0xe4, 0xc3, 0x44, 0xbe,
  0xe8, 0x0c, 0x34, 0xbe, 0x28, 0x02, 0xe7, 0xbd, 0x94, 0xfb, 0x31, 0xbe,
  0x50, 0xe0, 0x3a, 0x3e, 0xc0, 0x47, 0xfc, 0xbc, 0x1c, 0xe1, 0x3b, 0xbe,
  0x28, 0xbc, 0xb0, 0x3d, 0xdc, 0xbc, 0x33, 0xbe, 0xd8, 0xfb, 0x87, 0x3d,
  0x58, 0x9c, 0xa0, 0x3d, 0x04, 0xe4, 0x6c, 0x3e, 0x8c, 0x07, 0x71, 0xbe,
  0xa4, 0xe0, 0x1f, 0xbe, 0x50, 0x3f, 0x3e, 0xbe, 0x78, 0x33, 0xcf, 0xbd,
  0x84, 0xa5, 0x55, 0xbe, 0x50, 0x5a, 0x47, 0xbe, 0x00, 0xb6, 0xac, 0x3b,
  0x40, 0x74, 0x8b, 0x3d, 0xd8, 0x27, 0x2e, 0xbe, 0x90, 0x42, 0xdc, 0x3d,
  0xe0, 0x74, 0xab, 0x3d, 0x20, 0xdd, 0xa8, 0x3d, 0x98, 0x14, 0xd7, 0x3d,
  0xf0, 0xd6, 0xd6, 0x3d, 0xb0, 0x95, 0x37, 0xbd, 0xc4, 0xe9, 0x33, 0xbe,
  0xd0, 0x96, 0x43, 0x3e, 0x50, 0x55, 0x44, 0xbe, 0x88, 0xc8, 0x3c, 0xbe,
  0xfc, 0x76, 0x2f, 0xbe, 0x00, 0xde, 0x1b, 0x3c, 0xb8, 0x6c, 0xc5, 0xbd,
  0xf0, 0x85, 0x29, 0x3d, 0x40, 0x49, 0x03, 0xbc, 0x54, 0xea, 0x0b, 0x3e,
  0x84, 0xec, 0x4e, 0xbe, 0x98, 0xb5, 0xc6, 0xbd, 0xe8, 0x91, 0xc5, 0x3d,
  0x80, 0xdd, 0x7e, 0xbe, 0x20, 0xd7, 0xf0, 0x3d, 0x00, 0x2b, 0x34, 0x3e,
  0xd8, 0x5e, 0x25, 0xbe, 0xf0, 0xdf, 0x0e, 0x3d, 0x40, 0x94, 0xb3, 0xbc,
  0x88, 0xe8, 0xe6, 0xbd, 0x28, 0xd0, 0x21, 0x3e, 0x28, 0x2e, 0x9c, 0x3d,
  0xe0, 0x4e, 0x62, 0x3e, 0x18, 0x0b, 0x6c, 0xbe, 0xe8, 0xea, 0xe4, 0xbd,
  0x54, 0x92, 0x78, 0x3e, 0x30, 0xc7, 0xb3, 0x3d, 0x00, 0xc8, 0x0c, 0x3d,
  0x0c, 0xe3, 0x41, 0x3e, 0x7c, 0x53, 0x36, 0xbe, 0x80, 0xc8, 0xdc, 0xbd,
  0x74, 0x0f, 0x17, 0xbe, 0x0c, 0x63, 0x57, 0x3e, 0x68, 0xe2, 0xbd, 0x3d,
  0xd0, 0x3b, 0x0f, 0xbe, 0x10, 0x03, 0x06, 0x3e, 0x94, 0xcc, 0x06, 0x3e,
  0xb9, 0xad, 0x60, 0x3d, 0x75, 0xd8, 0xfb, 0xbe, 0xb3, 0xc1, 0xa9, 0x3e,
  0xae, 0xbb, 0xc4, 0x3e, 0x60, 0x12, 0xd6, 0xbc, 0xfc, 0xce, 0x00, 0xbe,
  0x00, 0xeb, 0x63, 0x3e, 0x08, 0xa2, 0x54, 0x3d, 0x2d, 0x1b, 0xa1, 0xbe,
  0x88, 0x47, 0x7b, 0x3e, 0xdc, 0xb4, 0xc4, 0xbe, 0x36, 0x17, 0xf6, 0x3d,
  0xf5, 0x25, 0x1b, 0xbe, 0xa1, 0xc4, 0x0c, 0xbe, 0x57, 0x62, 0xc3, 0x3d,
  0x34, 0x22, 0xcb, 0x3e, 0x8d, 0xd2, 0x99, 0x3e, 0x48, 0x04, 0xce, 0x3d,
  0xc2, 0x2e, 0xcf, 0x3d, 0x81, 0x76, 0xc3, 0x3c, 0xa4, 0x67, 0x7d, 0xbe,
  0x4f, 0xae, 0x17, 0x3d, 0x88, 0x33, 0xcb, 0x3e, 0xe0, 0x5b, 0xab, 0x3d,
  0xf6, 0x1e, 0x30, 0x3e, 0x3f, 0xea, 0xf3, 0x3e, 0x98, 0x96, 0x0e, 0x3e,
  0xf8, 0x16, 0xd7, 0x3d, 0x00, 0x4d, 0x76, 0xbc, 0x00, 0xf8, 0x3c, 0x3d,
  0xcb, 0x5f, 0x2c, 0x3e, 0xb1, 0xe3, 0x82, 0xbe, 0x1f, 0x48, 0x9a, 0x3e,
  0x1c, 0xb6, 0x4a, 0xbe, 0xd0, 0xcb, 0xae, 0x3e, 0xab, 0x74, 0x9b, 0x3e,
  0x05, 0xe3, 0xcc, 0x3d, 0xa3, 0xa5, 0x2b, 0xbe, 0x79, 0xf2, 0xba, 0x3e,
  0x74, 0xab, 0xe2, 0x3c, 0xc6, 0xdc, 0xad, 0x3d, 0xf1, 0x5f, 0x5f, 0xbe,
  0xf3, 0xf6, 0x02, 0x3e, 0x50, 0xba, 0x34, 0x3d, 0xf7, 0x77, 0x1e, 0x3e,
  0xb1, 0x57, 0x0f, 0x3d, 0x0d, 0x4b, 0xb2, 0x3e, 0xa8, 0x32, 0xcf, 0x3e,
  0x00, 0xc0, 0x3c, 0x3c, 0x70, 0xa2, 0x31, 0x3e, 0x49, 0x11, 0xdc, 0x3d,
  0x68, 0xdd, 0x90, 0x3d, 0x3a, 0xaa, 0x86, 0xbb, 0x45, 0xea, 0x30, 0xbd,
  0xba, 0x0e, 0x8f, 0xbb, 0x16, 0xd8, 0x8e, 0xbe, 0x96, 0x18, 0x86, 0x3e,
  0x7c, 0xca, 0x37, 0xbe, 0x44, 0x96, 0xf4, 0x3d, 0x1f, 0x9c, 0x71, 0xbe,
  0x1d, 0xa3, 0x96, 0xbd, 0x8c, 0xfc, 0x12, 0x3e, 0x56, 0x9e, 0xa3, 0x3d,
  0x08, 0xb3, 0x3a, 0xbe, 0x00, 0xa7, 0x42, 0xbe, 0x7c, 0xe7, 0xbf, 0x3e,
  0x4f, 0x18, 0x18, 0xbe, 0x1b, 0x68, 0x88, 0x3c, 0xa8, 0x1a, 0x5c, 0xbe,
  0x08, 0x38, 0x3f, 0x3e, 0xd0, 0x93, 0x33, 0xbe, 0xb2, 0x81, 0xd5, 0x3d,
  0x74, 0x88, 0x7e, 0xbc, 0xc0, 0x50, 0x29, 0x3c, 0x6f, 0x17, 0xee, 0x3e,
  0x71, 0x0c, 0x04, 0xbe, 0x56, 0xee, 0x65, 0x3e, 0x59, 0xbb, 0xb6, 0xbd,
  0x22, 0xf0, 0x63, 0xbe, 0xf1, 0x66, 0x3b, 0xbe, 0xa3, 0x49, 0x69, 0x3e,
  0xbd, 0xc6, 0x5b, 0x3e, 0xf1, 0x8e, 0x86, 0x3e, 0x5f, 0xdd, 0xcf, 0x3a,
  0xcf, 0x83, 0x7d, 0x3e, 0x6e, 0xcb, 0xac, 0x3e, 0x4b, 0xde, 0x66, 0xbe,
  0x20, 0x54, 0x07, 0xbd, 0xd3, 0xd0, 0x62, 0xbe, 0xf9, 0x5c, 0xcf, 0xbe,
  0x7c, 0xc5, 0x14, 0xbe, 0xb0, 0x28, 0x41, 0x3d, 0x28, 0x49, 0xb6, 0x3d,
  0x0f, 0x8f, 0x9e, 0x3e, 0x4b, 0x55, 0x26, 0x3e, 0x95, 0x00, 0x05, 0x3e,
  0x0d, 0x77, 0x07, 0xbe, 0x20, 0xa8, 0x4b, 0xbe, 0x5a, 0x64, 0x5f, 0xbe,
  0x9b, 0x27, 0x9f, 0xbe, 0x8d, 0x80, 0x5d, 0x3e, 0xe1, 0xab, 0x1d, 0x3e,
  0x32, 0x3f, 0x66, 0xbe, 0xd6, 0x98, 0xab, 0x3e, 0xad, 0x90, 0x2a, 0xbc,
  0xd8, 0xb2, 0x1b, 0xbe, 0x5e, 0xa1, 0x97, 0xbe, 0xd0, 0x6b, 0x56, 0xbd,
  0xd0, 0x6d, 0xab, 0xbd, 0xc0, 0x04, 0x03, 0xbe, 0x51, 0x69, 0x1d, 0xbe,
  0xa1, 0x8c, 0x39, 0xbe, 0x00, 0xec, 0xee, 0xbc, 0x5c, 0x14, 0x44, 0x3e,
  0x09, 0xb7, 0x96, 0x3d, 0xfc, 0x64, 0x4a, 0x3e, 0x67, 0xea, 0x12, 0xbe,
  0x10, 0x91, 0xdb, 0x3d, 0xa7, 0x38, 0x8b, 0x3e, 0x9d, 0x98, 0x18, 0xbe,
  0xb9, 0xfe, 0x48, 0xbe, 0x30, 0x5d, 0x23, 0x3e, 0xd2, 0x48, 0xc2, 0x3e,
  0x6e, 0x9f, 0x43, 0x3d, 0xa0, 0xaf, 0xe8, 0xbc, 0xc0, 0xb0, 0xda, 0xbc,
  0x76, 0xdf, 0x82, 0x3e, 0xd4, 0x01, 0x10, 0x3e, 0x22, 0xfc, 0x87, 0xbd,
  0x71, 0x3b, 0xdf, 0x3e, 0xfc, 0x3d, 0x34, 0x3e, 0x69, 0x52, 0x11, 0x3e,
  0x40, 0x9f, 0x63, 0xbc, 0xf4, 0x99, 0x6e, 0xbe, 0x00, 0xa5, 0x30, 0xbe,
  0x3a, 0x61, 0x81, 0xbe, 0xa7, 0x03, 0x8c, 0x3e, 0x71, 0xe7, 0x94, 0xbb,
  0x80, 0xf0, 0xb1, 0x3e, 0x7c, 0x2d, 0x03, 0x3e, 0x72, 0xcc, 0xd8, 0x3d,
  0x8b, 0x35, 0xa3, 0x3e, 0xc6, 0xc9, 0xa7, 0xbe, 0x97, 0x1f, 0x6b, 0x3c,
  0xfb, 0xa1, 0x66, 0x3d, 0x9d, 0x97, 0x6d, 0x3e, 0x9a, 0x88, 0x5c, 0x3d,
  0xf5, 0x56, 0x1f, 0x3c, 0xf8, 0xb0, 0x84, 0x3e, 0x2e, 0x81, 0xc4, 0x3e,
  0xdb, 0x95, 0x95, 0xbe, 0x60, 0xa1, 0xcd, 0x3c, 0x18, 0x74, 0x1f, 0xbe,
  0x35, 0x04, 0xd8, 0xbe, 0x20, 0xf1, 0xdd, 0x3d, 0xf0, 0xa3, 0x52, 0xbd,
  0xf8, 0xaa, 0xa8, 0x3d, 0xc1, 0x7c, 0x1f, 0xbc, 0xd4, 0xfc, 0x32, 0x3e,
  0xf2, 0x1d, 0x41, 0x3d, 0x49, 0xe6, 0x87, 0xbe, 0x20, 0x23, 0x57, 0x3d,
  0x32, 0xd6, 0x84, 0x3d, 0xc2, 0xab, 0x55, 0xbe, 0x17, 0x0c, 0x24, 0x3e,
  0xd9, 0xd5, 0x60, 0x3e, 0xa3, 0xfe, 0x6b, 0xbe, 0x6f, 0xe8, 0xdf, 0xbd,
  0x25, 0x15, 0x94, 0x3e, 0x98, 0x29, 0x9e, 0x3e, 0x01, 0xf1, 0x5d, 0xbd,
  0x10, 0x98, 0x05, 0xbe, 0x75, 0xa8, 0x4d, 0x3e, 0x5c, 0xb6, 0x1d, 0xbe,
  0x49, 0x01, 0xa5, 0xbe, 0x55, 0x68, 0xcf, 0xbe, 0x78, 0x15, 0xac, 0x3d,
  0xb8, 0x06, 0x8e, 0x3d, 0xde, 0x70, 0x93, 0x3e, 0x97, 0x57, 0x63, 0xbc,
  0x0f, 0x51, 0xf7, 0x3d, 0xc0, 0xa1, 0x4b, 0xbd, 0xbd, 0x2a, 0x9c, 0x3e,
  0xf7, 0x9c, 0x57, 0xbd, 0x09, 0x81, 0xf1, 0xbe, 0x40, 0xe2, 0x35, 0xbd,
  0x4d, 0xa2, 0xab, 0x3c, 0x86, 0x40, 0xad, 0xbd, 0x1a, 0xc6, 0x05, 0x3e,
  0x30, 0x72, 0x7e, 0xbd, 0xc3, 0x5e, 0x71, 0x3d, 0x00, 0xa2, 0xfb, 0xbd,
  0x3c, 0x28, 0x3f, 0xbe, 0x14, 0x8e, 0x5c, 0xbe, 0x80, 0xeb, 0x04, 0xbe,
  0xb8, 0xec, 0x16, 0xbe, 0xd0, 0x77, 0xaf, 0x3d, 0xa0, 0x61, 0x9f, 0xbd,
  0x60, 0xcf, 0x3e, 0xbd, 0xc0, 0x1e, 0xf3, 0x3c, 0x04, 0xc5, 0x6d, 0xbe,
  0x50, 0x49, 0x11, 0xbe, 0xbc, 0x41, 0x11, 0x3e, 0x44, 0x26, 0x3f, 0xbe,
  0x78, 0x3a, 0x43, 0xbe, 0x18, 0x38, 0x94, 0xbd, 0x74, 0x7d, 0x0d, 0xbe,
  0xc8, 0x6c, 0x83, 0x3d, 0x7c, 0x9e, 0x62, 0xbe, 0x78, 0xc2, 0x1a, 0xbe,
  0xe0, 0x31, 0xaa, 0xbd, 0xe8, 0xc8, 0x09, 0x3e, 0x00, 0xc1, 0x4d, 0xbb,
  0xc0, 0x10, 0x2f, 0xbd, 0xfc, 0x34, 0x56, 0x3e, 0xb0, 0x6e, 0x22, 0x3d,
  0x70, 0x05, 0x19, 0x3d, 0x20, 0x45, 0xa8, 0xbc, 0x44, 0xc3, 0x31, 0xbe,
  0xd0, 0x4e, 0x0b, 0x3d, 0xd0, 0x71, 0xbd, 0xbd, 0xe0, 0x1c, 0x0f, 0x3e,
  0xb8, 0x0f, 0x17, 0xbe, 0xc8, 0xa1, 0xb9, 0x3d, 0x90, 0x9a, 0x51, 0x3e,
  0x18, 0x1b, 0x05, 0xbe, 0x40, 0x3b, 0xf9, 0x3c, 0xc0, 0x61, 0xa1, 0xbc,
  0xbc, 0xbb, 0x78, 0x3e, 0x94, 0x48, 0x49, 0xbe, 0x00, 0xaa, 0xa7, 0xbd,
  0xfc, 0xbc, 0x46, 0xbe, 0xb0, 0x98, 0x4a, 0xbe, 0x40, 0xa1, 0x3d, 0xbe,
  0x00, 0x0e, 0x49, 0xbe, 0xc0, 0xff, 0xd6, 0xbc, 0x3c, 0x18, 0x38, 0xbe,
  0x20, 0xa4, 0x69, 0xbd, 0xe8, 0xcf, 0x02, 0xbe, 0x20, 0x96, 0x08, 0xbe,
  0x10, 0xe6, 0x18, 0xbe, 0x80, 0x87, 0xb8, 0x3c, 0x98, 0xee, 0xfd, 0x3d,
  0xa0, 0xa5, 0x73, 0xbe, 0x0c, 0xeb, 0x20, 0x3e, 0x80, 0xc6, 0xb9, 0xbb,
  0x30, 0x5e, 0xd6, 0x3d, 0xc0, 0x14, 0x65, 0xbd, 0x90, 0x4d, 0x2a, 0x3d,
  0x18, 0x58, 0x1a, 0xbe, 0xd8, 0x13, 0x0d, 0xbe, 0x70, 0xe9, 0x3c, 0x3e,
  0xe4, 0x66, 0x22, 0x3e, 0xc0, 0x30, 0x16, 0xbc, 0x20, 0x23, 0xf0, 0x3d,
  0x10, 0xfb, 0x4a, 0xbd, 0x28, 0x8b, 0x86, 0xbf, 0xd0, 0x2e, 0x7b, 0x3e,
  0xe0, 0x4b, 0x44, 0xbe, 0x5f, 0x06, 0x1e, 0xba, 0x2c, 0xe2, 0x11, 0xbe,
  0x5c, 0xff, 0x69, 0xbe, 0x90, 0x74, 0x32, 0xbd, 0xc6, 0x27, 0xec, 0xbd,
  0x68, 0xa2, 0xa5, 0x3e, 0xf8, 0x15, 0xb0, 0x3d, 0xcb, 0xe2, 0x0d, 0x3e,
  0xa8, 0xe6, 0x57, 0xbe, 0xb9, 0x23, 0x3d, 0x3e, 0x85, 0xdf, 0x9a, 0x3e,
  0xfb, 0x2d, 0x21, 0xbe, 0xa8, 0x3c, 0xd7, 0xbe, 0xf1, 0x76, 0x82, 0xbe,
  0xa3, 0xf6, 0x50, 0x3d, 0x5a, 0xa4, 0x64, 0x3e, 0xdd, 0x60, 0xa2, 0xbe,
  0xbb, 0x65, 0x8d, 0x3e, 0x86, 0x22, 0x2c, 0xba, 0xc2, 0xe9, 0x57, 0xbd,
  0x24, 0x6b, 0x16, 0xbe, 0x17, 0x8b, 0xe6, 0x3d, 0x78, 0x37, 0xa6, 0x3e,
  0x20, 0x44, 0x82, 0x3d, 0x74, 0xc4, 0x6e, 0x3e, 0x34, 0xeb, 0x6f, 0x3e,
  0xd5, 0x24, 0xa0, 0xbc, 0xc8, 0xbf, 0xbe, 0x3d, 0x3a, 0xc4, 0xaa, 0x3e,
  0x88, 0x47, 0xc6, 0xbe, 0x38, 0xd9, 0x1c, 0x3e, 0xed, 0xff, 0x9d, 0xbe,
  0x50, 0x8b, 0x43, 0xbf, 0x8d, 0x70, 0x7e, 0xbc, 0xf7, 0x47, 0x8c, 0x3a,
  0x09, 0xbe, 0x53, 0xbe, 0xbd, 0xd0, 0x55, 0x3e, 0x2a, 0x7d, 0xe5, 0xbd,
  0x67, 0xcb, 0x15, 0xbd, 0xbf, 0x2c, 0xe5, 0x3e, 0x68, 0xd3, 0x93, 0x3d,
  0xf8, 0xfe, 0x5c, 0xbe, 0xc8, 0xab, 0xd5, 0xbe, 0x96, 0x03, 0x8d, 0x3e,
  0xd6, 0xdb, 0x38, 0xbe, 0x70, 0x50, 0x18, 0xbd, 0x08, 0xbd, 0xe8, 0x3d,
  0xb9, 0xb6, 0x01, 0x3e, 0x4c, 0x65, 0xb4, 0x3d, 0x7c, 0x7b, 0xe7, 0xbe,
  0xb0, 0x62, 0xab, 0x3d, 0xaa, 0x3d, 0x38, 0xbd, 0x32, 0x97, 0x2a, 0x3e,
  0x19, 0x99, 0x8f, 0xbe, 0x18, 0xfa, 0xec, 0x3d, 0x00, 0x8c, 0x3e, 0x3e,
  0x49, 0x65, 0x8c, 0x3e, 0xe0, 0x74, 0x2a, 0xbe, 0x38, 0xea, 0xcd, 0xbd,
  0x0a, 0xee, 0x87, 0x3e, 0x70, 0x89, 0x13, 0xbd, 0x0c, 0x3e, 0x38, 0x3e,
  0x3d, 0x61, 0x08, 0xbf, 0x9f, 0x9a, 0xc3, 0x3e, 0x9e, 0x76, 0xa6, 0xbd,
  0xb0, 0xc8, 0xec, 0x3d, 0xc0, 0xa8, 0xc0, 0x3c, 0x00, 0x48, 0xf2, 0xbb,
  0x68, 0xee, 0x93, 0x3d, 0xd4, 0xd3, 0xac, 0xbc, 0x7f, 0x50, 0xea, 0x3d,
  0x83, 0xc6, 0xb5, 0xbe, 0x18, 0xd1, 0xe4, 0x3c, 0xef, 0x6e, 0x09, 0x3e,
  0x11, 0x43, 0x08, 0xbe, 0xb2, 0xaa, 0xef, 0x3e, 0xe1, 0x78, 0xb8, 0x3e,
  0x7c, 0xfd, 0xfc, 0xbd, 0x76, 0x2b, 0xd9, 0x3d, 0x5a, 0x34, 0xb1, 0x3e,
  0x78, 0x92, 0x0f, 0x3e, 0xa0, 0x9f, 0x8d, 0xbe, 0x67, 0xab, 0x51, 0xbe,
  0x1d, 0xb5, 0x3a, 0x3e, 0x1c, 0x85, 0x56, 0x3e, 0x9d, 0x07, 0xed, 0x3e,
  0x54, 0xdd, 0xfa, 0x3e, 0x40, 0x05, 0xbc, 0xbc, 0x18, 0x2b, 0xc9, 0xbd,
  0x80, 0xe4, 0xa6, 0xbb, 0xa7, 0x5d, 0x39, 0xbe, 0xba, 0x94, 0x90, 0xbd,
  0xd4, 0x2a, 0x30, 0x3d, 0x42, 0xb1, 0xc3, 0x3e, 0x0c, 0x2f, 0x56, 0xbe,
  0xeb, 0xd8, 0x42, 0x3e, 0xbc, 0x8c, 0x8d, 0x3d, 0x51, 0x1a, 0xae, 0x3e,
  0x2e, 0x94, 0x90, 0x3c, 0xf6, 0x6a, 0xaf, 0x3e, 0xad, 0x12, 0x89, 0xbe,
  0x5a, 0xf0, 0x8f, 0xbb, 0x88, 0x8b, 0xfb, 0xbd, 0xb2, 0xa7, 0xea, 0x3e,
  0x48, 0xe6, 0x2f, 0x3e, 0x63, 0xbc, 0xe6, 0x3a, 0x42, 0x75, 0xce, 0x3e,
  0x47, 0x92, 0x55, 0x3e, 0xf1, 0x67, 0x99, 0x3e, 0x40, 0xbd, 0xa1, 0x3d,
  0x48, 0x42, 0x6a, 0xbe, 0xd4, 0xb4, 0x3e, 0x3e, 0xcf, 0x5b, 0x6f, 0xbe,
  0xfb, 0xf7, 0x9f, 0x3e, 0x60, 0xb2, 0x1b, 0xbe, 0xf9, 0x70, 0x73, 0x3e,
  0xc8, 0xb9, 0xe9, 0xbd, 0xd3, 0x12, 0x8c, 0x3e, 0x90, 0xc3, 0x12, 0x3e,
  0x92, 0xd4, 0xc7, 0x3d, 0x8e, 0x25, 0xbe, 0xbe, 0x69, 0xba, 0xae, 0xbc,
  0xdc, 0xb6, 0x07, 0x3e, 0x74, 0x3a, 0x8f, 0xbd, 0x88, 0x45, 0xf3, 0xbd,
  0xcb, 0xe8, 0x05, 0x3e, 0x91, 0x44, 0x84, 0x3e, 0x47, 0xe4, 0x68, 0xbd,
  0x25, 0x34, 0x10, 0x3d, 0x1c, 0xb5, 0x12, 0x3e, 0x10, 0x6a, 0xe3, 0x3d,
  0x88, 0x41, 0x90, 0x3d, 0x9f, 0x0d, 0x29, 0x3b, 0xa8, 0x8b, 0x2c, 0x3e,
  0x78, 0xf4, 0x76, 0x3e, 0x42, 0x86, 0xca, 0x3e, 0x15, 0xb9, 0x85, 0x3e,
  0x10, 0x75, 0x88, 0x3e, 0xc9, 0x54, 0x6f, 0x3e, 0x34, 0x40, 0x82, 0xbe,
  0x4f, 0xf0, 0x0c, 0x3e, 0xde, 0x69, 0x00, 0x3e, 0x83, 0xcc, 0xb0, 0x3e,
  0xea, 0x96, 0x83, 0x3e, 0x52, 0xb5, 0xaa, 0xbd, 0x10, 0x91, 0x5d, 0x3b,
  0xa1, 0x3c, 0xcd, 0xbd, 0x34, 0x51, 0xad, 0xbe, 0x40, 0x26, 0xe9, 0x3d,
  0xa1, 0x08, 0x2a, 0xbe, 0xc7, 0x8a, 0x4d, 0xbe, 0x6c, 0x95, 0x37, 0xbe,
  0xb0, 0x19, 0xf1, 0xbd, 0x64, 0x4b, 0x0d, 0xbe, 0x4f, 0xe8, 0xb4, 0x3d,
  0x72, 0x2a, 0x93, 0x3e, 0x34, 0x69, 0x85, 0x3d, 0x57, 0xdc, 0x41, 0xbe,
  0x64, 0xdf, 0x03, 0x3e, 0x87, 0x94, 0xbb, 0xbe, 0x07, 0x33, 0x76, 0xbe,
  0x80, 0x2b, 0xd8, 0x3c, 0x11, 0xf0, 0x8f, 0x3d, 0x0c, 0xb9, 0x2d, 0xbe,
  0xcd, 0x92, 0x47, 0x3e, 0x31, 0x5c, 0x9e, 0x3e, 0x6b, 0xb5, 0x97, 0xbd,
  0xdf, 0x64, 0x8b, 0xbe, 0xc0, 0x40, 0xee, 0x3c, 0x20, 0x94, 0x04, 0xbe,
  0x61, 0x0a, 0xa0, 0xbe, 0xc9, 0x1d, 0xf2, 0xbe, 0xc3, 0xe0, 0x00, 0xbe,
  0x04, 0x25, 0x3d, 0xbe, 0x34, 0xcc, 0x75, 0x3e, 0xd5, 0xfc, 0xb2, 0xbd,
  0xf4, 0xd6, 0xf9, 0xbd, 0x8e, 0x20, 0x51, 0xbe, 0xc0, 0x56, 0x7e, 0xbc,
  0x7a, 0x95, 0xb8, 0x3e, 0xa2, 0x1d, 0xa2, 0xbc, 0xab, 0x6e, 0xe7, 0xbd,
  0x58, 0x08, 0xeb, 0xbd, 0x2d, 0xe6, 0x8a, 0x3e, 0xec, 0x10, 0xca, 0x3e,
  0x00, 0x89, 0x5c, 0xbc, 0xbc, 0xdf, 0x50, 0x3e, 0xa1, 0xec, 0x03, 0x3d,
  0x50, 0x34, 0x4b, 0xbd, 0x80, 0xf3, 0xca, 0x3b, 0x00, 0xa2, 0x3f, 0xbb,
  0xd0, 0xae, 0x0a, 0xbd, 0x54, 0xf9, 0x62, 0xbe, 0x20, 0xe2, 0xda, 0x3d,
  0xc0, 0x03, 0x2c, 0xbc, 0xc0, 0x7a, 0x5f, 0x3d, 0x90, 0x6c, 0x6c, 0xbe,
  0xa0, 0xd6, 0x95, 0x3c, 0x00, 0x58, 0xab, 0xbd, 0x50, 0xd4, 0x56, 0xbd,
  0x40, 0x3d, 0x07, 0x3d, 0xb0, 0x5f, 0xdf, 0x3d, 0x2c, 0xb7, 0x18, 0x3e,
  0xa0, 0x11, 0x78, 0xbd, 0x88, 0x72, 0xdc, 0xbd, 0x78, 0x9a, 0xe2, 0xbd,
  0xa8, 0x03, 0xcb, 0xbd, 0x3c, 0x59, 0x71, 0xbe, 0xe0, 0x47, 0x05, 0xbe,
  0xd0, 0x47, 0x12, 0x3d, 0x60, 0x04, 0x6a, 0xbd, 0xe4, 0x8a, 0x56, 0xbe,
  0x70, 0x0f, 0x57, 0x3e, 0x3c, 0x5a, 0x4b, 0x3e, 0xa8, 0x0c, 0xa2, 0x3d,
  0x4c, 0x6f, 0x16, 0xbe, 0xdc, 0x20, 0x7a, 0x3e, 0x00, 0x8a, 0xd6, 0x3b,
  0xf8, 0x17, 0xfd, 0xbd, 0xb8, 0x08, 0x19, 0x3e, 0x60, 0xc7, 0x1c, 0x3e,
  0xcc, 0x34, 0x71, 0x3e, 0x40, 0xa7, 0x8d, 0xbd, 0x60, 0x75, 0x5f, 0x3d,
  0x00, 0xa8, 0x04, 0xbc, 0x5c, 0x56, 0x00, 0xbe, 0xc4, 0xe6, 0x7c, 0xbe,
  0x60, 0x06, 0x3c, 0x3e, 0xc0, 0x98, 0x26, 0xbd, 0x90, 0x8e, 0x95, 0x3d,
  0x08, 0xea, 0x5e, 0xbe, 0x68, 0xf2, 0x1e, 0x3e, 0x00, 0xf2, 0x98, 0xba,
  0x30, 0xb3, 0x7b, 0x3d, 0xdc, 0x61, 0x13, 0x3e, 0x18, 0x1a, 0xcb, 0xbd,
  0x38, 0xac, 0x22, 0x3e, 0xb0, 0xf9, 0xad, 0x3d, 0x5c, 0x40, 0x38, 0xbe,
  0x14, 0x09, 0x70, 0xbe, 0x38, 0xbd, 0x5a, 0xbe, 0x38, 0xd8, 0x39, 0xbe,
  0x20, 0xd4, 0x0a, 0xbe, 0x20, 0x90, 0x07, 0xbe, 0x90, 0x31, 0xd2, 0xbd,
  0x40, 0xce, 0x6d, 0xbd, 0xf8, 0xd5, 0xf5, 0x3d, 0x74, 0x79, 0x45, 0xbe,
  0x6c, 0xce, 0x20, 0xbe, 0x1c, 0x28, 0x72, 0xbe, 0x08, 0x86, 0x10, 0x3e,
  0xd8, 0x63, 0x9f, 0x3d, 0x60, 0x1f, 0x16, 0x3e, 0x88, 0x22, 0x72, 0xbe,
  0x17, 0xe2, 0x85, 0x3d, 0xb6, 0xb1, 0x22, 0xbe, 0xbb, 0x55, 0x2c, 0xbe,
  0x40, 0x34, 0x42, 0x3d, 0x7c, 0x90, 0x59, 0xbe, 0xe4, 0x7e, 0x63, 0x3e,
  0x00, 0xee, 0x08, 0xbc, 0x8e, 0x30, 0x65, 0xbe, 0x58, 0x28, 0x93, 0xbd,
  0x8d, 0xa6, 0x85, 0xbe, 0xa8, 0x16, 0x85, 0xbe, 0xd0, 0xba, 0x88, 0x3d,
  0xba, 0x83, 0x58, 0x3e, 0xa4, 0x07, 0x5a, 0xbe, 0x7c, 0xec, 0x11, 0xbe,
  0x63, 0xc3, 0xd6, 0x3d, 0x9c, 0xb5, 0x03, 0x3d, 0x55, 0x9e, 0x18, 0x3d,
  0xbb, 0x62, 0xc2, 0x3d, 0x0c, 0x1c, 0x78, 0xbe, 0xc5, 0xdd, 0x63, 0x3d,
  0xe0, 0x21, 0xd0, 0xbd, 0x00, 0xab, 0x74, 0xbb, 0x25, 0x52, 0x5c, 0x3d,
  0xd9, 0xc2, 0x23, 0x3e, 0x40, 0xea, 0x4b, 0xbd, 0xa4, 0x89, 0x29, 0xbe,
  0xc4, 0x5e, 0x77, 0x3e, 0x74, 0x13, 0x6b, 0x3d, 0x87, 0xbc, 0x80, 0xbe,
  0xd5, 0xe1, 0xba, 0xba, 0x30, 0xe2, 0xd0, 0xbd, 0xf0, 0x27, 0x13, 0xbd,
  0x5c, 0x7a, 0x6f, 0xbe, 0x90, 0x63, 0x4d, 0x3d, 0xe0, 0x80, 0x5a, 0x3e,
  0xaf, 0xcc, 0x81, 0xbe, 0x0d, 0xf3, 0x57, 0xbe, 0xac, 0x5c, 0x4a, 0x3e,
  0x22, 0xc9, 0xec, 0x3d, 0x6a, 0x60, 0x30, 0xbe, 0x2c, 0x28, 0x63, 0xbe,
  0x20, 0x33, 0x18, 0x3e, 0x60, 0xab, 0xc1, 0xbd, 0x28, 0x23, 0xf8, 0xbd,
  0xbd, 0xf9, 0xf2, 0xbd, 0x4f, 0x00, 0x9b, 0xbd, 0x08, 0xf0, 0xe2, 0xbd,
  0x8c, 0xc2, 0x76, 0xbe, 0x65, 0xa7, 0xd9, 0x3d, 0xae, 0x68, 0xf0, 0xbd,
  0xe0, 0xbe, 0xd1, 0xbd, 0x44, 0xdd, 0x65, 0xbe, 0xaa, 0x39, 0x11, 0x3d,
  0x98, 0x74, 0x70, 0xbe, 0x1e, 0xc6, 0x18, 0xbc, 0xc8, 0x41, 0x5e, 0xbe,
  0xec, 0xa0, 0x0a, 0x3e, 0x7f, 0xaa, 0x67, 0xbe, 0x88, 0xc8, 0x62, 0x3e,
  0x28, 0xfe, 0xc7, 0x3d, 0x29, 0xfb, 0x73, 0xbe, 0x38, 0x55, 0xc2, 0xbd,
  0x87, 0xbe, 0x58, 0xbe, 0x9c, 0x01, 0x13, 0x3e, 0xa3, 0xdf, 0x0a, 0x3d,
  0xdf, 0x98, 0x3a, 0xbe, 0xe0, 0x3b, 0x77, 0x3d, 0x80, 0x4a, 0x3b, 0xbe,
  0xa0, 0x8b, 0x9d, 0xbc, 0xb1, 0xad, 0xdb, 0x3c, 0x5c, 0x19, 0xc5, 0x3e,
  0x80, 0xc4, 0xc1, 0xbb, 0xa7, 0xec, 0x15, 0x3e, 0x63, 0xc5, 0xa4, 0x3e,
  0x94, 0x30, 0xf0, 0x3b, 0x7b, 0x73, 0xb9, 0x3e, 0x48, 0x88, 0xc1, 0xbd,
  0xc3, 0xaa, 0xfc, 0xbd, 0x8a, 0xf8, 0x4d, 0x3e, 0x5c, 0x24, 0x67, 0x3e,
  0x66, 0x19, 0x37, 0x3e, 0x0e, 0x3c, 0xd1, 0xbd, 0x83, 0x1f, 0xf2, 0xbd,
  0x1c, 0xee, 0x08, 0xbd, 0xd1, 0x70, 0x9c, 0xbe, 0x00, 0x1c, 0x37, 0x3a,
  0x01, 0x7a, 0xe3, 0xbe, 0x4d, 0x41, 0x9a, 0xbe, 0xac, 0xf4, 0x1b, 0xbe,
  0xd0, 0xb4, 0x7c, 0xbd, 0xf0, 0xaf, 0x5f, 0xbd, 0x93, 0x3a, 0xf7, 0x3b,
  0x00, 0xa2, 0x77, 0x3e, 0xe9, 0x81, 0xbc, 0x3b, 0x22, 0xef, 0x30, 0x3d,
  0x70, 0xeb, 0x3d, 0x3d, 0x83, 0x09, 0xbe, 0x3b, 0x30, 0x24, 0x37, 0xbe,
  0x8b, 0x98, 0x3b, 0x3e, 0xbb, 0x96, 0x26, 0x3c, 0x4a, 0x2f, 0x8f, 0xbe,
  0xe3, 0x4b, 0x61, 0x3e, 0xe1, 0x95, 0x57, 0x3d, 0x53, 0xe8, 0x9d, 0x3e,
  0xb9, 0x30, 0xfd, 0x3c, 0x00, 0x88, 0x66, 0x3e, 0x44, 0xec, 0x36, 0xbe,
  0x5b, 0x72, 0x91, 0xbe, 0xec, 0xec, 0x09, 0xbe, 0xb9, 0x00, 0x1e, 0xbe,
  0x20, 0x33, 0x80, 0x3c, 0x70, 0x1a, 0x92, 0x3d, 0xb8, 0x1a, 0x63, 0x3e,
  0x25, 0xa7, 0xb5, 0xbd, 0x09, 0x1a, 0x5d, 0xbe, 0xf8, 0x9d, 0x4e, 0xbe,
  0x2f, 0x8b, 0x38, 0x3e, 0x71, 0xe9, 0xf9, 0xbd, 0x00, 0xfa, 0xcb, 0xbe,
  0x70, 0x89, 0x21, 0x3e, 0x37, 0xb8, 0xb3, 0x3e, 0x74, 0xba, 0x65, 0x3e,
  0x14, 0x2e, 0x13, 0xbe, 0x38, 0x70, 0xd6, 0xbd, 0x84, 0x9e, 0x8e, 0x3e,
  0xa4, 0x0e, 0x71, 0xbe, 0x18, 0xaf, 0x62, 0xbe, 0x20, 0x15, 0x1b, 0xbe,
  0xcc, 0x0e, 0x11, 0x3e, 0xf0, 0x7a, 0x8e, 0xbd, 0x60, 0xba, 0x71, 0x3d,
  0x8c, 0x03, 0x63, 0x3e, 0xa0, 0x14, 0xd8, 0xbd, 0x08, 0xcf, 0x55, 0xbe,
  0x60, 0x61, 0xd6, 0xbc, 0x4c, 0x9e, 0x4e, 0xbe, 0x4c, 0x89, 0x42, 0xbe,
  0xc0, 0xa5, 0x26, 0xbe, 0x88, 0x4f, 0x55, 0x3e, 0x60, 0xf1, 0x90, 0xbc,
  0x60, 0x98, 0x68, 0x3e, 0x58, 0xa6, 0x00, 0x3e, 0x70, 0x79, 0x97, 0xbd,
  0x6c, 0xff, 0x75, 0x3e, 0x80, 0x99, 0x58, 0x3c, 0xb8, 0x31, 0x6e, 0xbe,
  0xe0, 0x23, 0x73, 0xbd, 0x0c, 0x1b, 0x4b, 0xbe, 0xb8, 0x65, 0x85, 0x3d,
  0x94, 0x4c, 0x40, 0xbe, 0x98, 0xbc, 0x79, 0x3e, 0x40, 0xbb, 0x6c, 0xbc,
  0x18, 0x5f, 0x3a, 0xbe, 0x78, 0xef, 0xbd, 0x3d, 0x60, 0xe5, 0xe4, 0x3d,
  0x88, 0xea, 0xec, 0x3d, 0x20, 0x67, 0xc1, 0xbc, 0x80, 0x3f, 0xe7, 0x3b,
  0xe0, 0x18, 0xa7, 0x3d, 0xbc, 0x2d, 0x26, 0x3e, 0x90, 0xaa, 0xa9, 0xbd,
  0x00, 0x20, 0x23, 0xbb, 0x20, 0x6b, 0x18, 0x3d, 0x68, 0xbf, 0xa2, 0xbd,
  0x7c, 0x54, 0x02, 0xbe, 0xd8, 0xb0, 0xe9, 0xbd, 0x90, 0xf8, 0xe3, 0xbd,
  0xd8, 0x62, 0xe8, 0x3d, 0x20, 0x99, 0x8e, 0xbc, 0x50, 0x3a, 0x2a, 0xbe,
  0x04, 0x2a, 0x38, 0xbe, 0x68, 0x85, 0x25, 0xbe, 0x84, 0xb1, 0x08, 0x3e,
  0x00, 0xab, 0x52, 0xbc, 0x90, 0xad, 0x38, 0xbd, 0xd8, 0x03, 0x27, 0x3e,
  0x40, 0x18, 0x46, 0xbe, 0xbc, 0xc7, 0x0c, 0xbe, 0x90, 0xae, 0x74, 0xbd,
  0x48, 0x28, 0xda, 0x3d, 0x38, 0xa7, 0xff, 0xbd, 0xbc, 0x13, 0x37, 0x3e,
  0x34, 0x0a, 0x46, 0x3e, 0x18, 0xe7, 0xbc, 0xbd, 0x84, 0x4c, 0x34, 0xbe,
  0x50, 0x3a, 0x64, 0x3d, 0xf0, 0x9e, 0xed, 0xbd, 0x00, 0x6c, 0x66, 0x3c,
  0xd0, 0x04, 0x74, 0xbe, 0xd8, 0xd4, 0x65, 0xbe, 0xa1, 0x00, 0xb4, 0xbe,
  0xfd, 0xd4, 0xa4, 0x3c, 0x67, 0xc0, 0x43, 0x3e, 0xab, 0x93, 0x93, 0x3d,
  0x10, 0xcd, 0x80, 0x3d, 0x1c, 0x63, 0x7e, 0xbe, 0x10, 0x91, 0x3c, 0xbd,
  0xb1, 0x87, 0xd1, 0x3d, 0x4b, 0x1b, 0x4d, 0x3e, 0x44, 0x86, 0x5f, 0x3e,
  0x5a, 0x30, 0xc6, 0x3e, 0x5a, 0x5b, 0x0f, 0x3d, 0x08, 0x25, 0xaa, 0x3e,
  0x04, 0xcc, 0xa4, 0x3e, 0x49, 0xb6, 0x8c, 0xbe, 0x53, 0x5a, 0xaa, 0xbe,
  0xf9, 0xa7, 0x8b, 0x3e, 0xdf, 0xb9, 0x7c, 0xbd, 0x6d, 0x7d, 0x3a, 0x3e,
  0x9d, 0xaf, 0xcc, 0xbd, 0x82, 0x40, 0x37, 0x3e, 0xf2, 0x7c, 0xa9, 0x3e,
  0x49, 0x0e, 0x7e, 0xbe, 0x00, 0xe0, 0x57, 0xba, 0x06, 0xc7, 0x6b, 0xbd,
  0x02, 0xd2, 0x28, 0xbe, 0xe8, 0xc0, 0xa8, 0x3d, 0xa8, 0xeb, 0x80, 0xbd,
  0x18, 0x73, 0x9e, 0x3d, 0x03, 0x7c, 0x05, 0xbd, 0x72, 0x51, 0xb3, 0x3e,
  0x02, 0xaf, 0x24, 0x3e, 0x7f, 0x9c, 0xf8, 0xbd, 0x88, 0x77, 0x59, 0xbe,
  0xcf, 0x67, 0x98, 0xbe, 0xc4, 0x9c, 0x7c, 0xbe, 0x58, 0x76, 0x89, 0x3e,
  0x3c, 0x30, 0x5d, 0x3e, 0xdc, 0x12, 0x93, 0xbe, 0xba, 0x66, 0x58, 0x3e,
  0xf6, 0x1e, 0x56, 0x3e, 0x7a, 0x5e, 0xed, 0x3d, 0xe4, 0x05, 0x8c, 0xbe,
  0x08, 0x53, 0xc6, 0x3d, 0x20, 0x9d, 0xfb, 0xbc, 0x6b, 0x8c, 0xa1, 0xbe,
  0x72, 0xde, 0x0a, 0xbf, 0xa1, 0xce, 0x35, 0xbe, 0xf0, 0xa2, 0xc2, 0xbd,
  0xd8, 0xd3, 0xbb, 0x3d, 0x44, 0xbb, 0x18, 0x3e, 0x29, 0x4f, 0x61, 0x3e,
  0xb8, 0xfe, 0x12, 0xbe, 0x40, 0xc5, 0x1e, 0x3e, 0x26, 0x2c, 0x83, 0x3e,
  0x6d, 0xe5, 0x3a, 0xbe, 0xaf, 0x13, 0xc8, 0xbe, 0xbc, 0xe9, 0x58, 0xbe,
  0x75, 0xd2, 0x1b, 0x3d, 0xfe, 0xad, 0x93, 0xbc, 0xbc, 0xdf, 0x5a, 0x3e,
  0x30, 0xc5, 0x8d, 0xbd, 0xf1, 0x2e, 0x3e, 0xbd, 0xc8, 0x4b, 0xf3, 0x3d,
  0x7c, 0x96, 0x98, 0xbf, 0x92, 0xaa, 0xa8, 0xbd, 0xb8, 0x41, 0xb3, 0x3d,
  0x9d, 0x8a, 0x8d, 0xbd, 0xf0, 0x73, 0xc7, 0xbd, 0x90, 0x62, 0x50, 0xbd,
  0x68, 0x81, 0x14, 0x3e, 0xe8, 0xee, 0x19, 0xbe, 0x63, 0x16, 0xa1, 0x3e,
  0x34, 0xfc, 0x01, 0x3e, 0xa6, 0x16, 0x48, 0x3e, 0x53, 0x8c, 0xa8, 0x3d,
  0xdb, 0xd4, 0x28, 0xbe, 0xf6, 0x24, 0xa8, 0xbd, 0x2e, 0x88, 0xc2, 0xbd,
  0xec, 0x87, 0x1c, 0xbf, 0x6d, 0x4a, 0x44, 0xbe, 0xa9, 0xed, 0x69, 0x3e,
  0x21, 0x4d, 0x61, 0xbe, 0xb9, 0xa8, 0x97, 0xbe, 0xf9, 0x7b, 0x84, 0x3e,
  0x06, 0x46, 0xa4, 0x3e, 0x85, 0x94, 0xc7, 0xbe, 0x18, 0x81, 0xc2, 0xbd,
  0x9a, 0x0c, 0xd9, 0x3e, 0xed, 0x38, 0xcc, 0x3e, 0xa8, 0x60, 0xaf, 0x3d,
  0x34, 0x19, 0x48, 0xbe, 0xf8, 0xc4, 0xa1, 0xbd, 0xc3, 0x5b, 0x8c, 0xbd,
  0xac, 0x35, 0x8f, 0x3e, 0x8d, 0xa6, 0x94, 0x3e, 0x3a, 0x6a, 0xd8, 0xbe,
  0xf0, 0xcc, 0x08, 0xbe, 0xf1, 0xd1, 0x6a, 0xbe, 0xe3, 0xcf, 0x13, 0xbf,
  0xe6, 0x43, 0x97, 0x3d, 0x90, 0xf6, 0x7b, 0x3e, 0xe9, 0x79, 0xcd, 0xbe,
  0xb7, 0xa1, 0x52, 0x3e, 0x2f, 0x76, 0x32, 0xbe, 0x71, 0xd3, 0x5e, 0x3e,
  0xf0, 0xc2, 0x09, 0x3e, 0x90, 0x12, 0x69, 0x3d, 0x7c, 0x3b, 0x55, 0xbe,
  0x8f, 0xd0, 0x46, 0xbf, 0x64, 0x4e, 0xa5, 0x3e, 0x75, 0x10, 0x03, 0xbe,
  0x30, 0xca, 0x54, 0xbe, 0x90, 0x0e, 0x62, 0xbe, 0x99, 0xff, 0x12, 0xbe,
  0x05, 0x8b, 0xe9, 0x3d, 0x6a, 0xa6, 0xd6, 0xbe, 0x00, 0x40, 0x9a, 0x3d,
  0xd1, 0xa3, 0x9e, 0x3d, 0x3e, 0xd1, 0xb4, 0xbd, 0x1e, 0x95, 0x80, 0xbd,
  0x30, 0x07, 0x68, 0xbe, 0x28, 0x11, 0xca, 0x3d, 0xde, 0xa1, 0xa9, 0xbd,
  0x08, 0xb8, 0x2d, 0x3e, 0xa8, 0x7e, 0xb7, 0x3d, 0xa5, 0xf0, 0x84, 0x3d,
  0x28, 0xb6, 0x2f, 0x3e, 0x3c, 0x6a, 0x3a, 0xbe, 0xc0, 0x59, 0x47, 0x3e,
  0x60, 0xbe, 0x9b, 0x3d, 0xbc, 0xe4, 0x1e, 0xbe, 0x50, 0x96, 0xad, 0x3d,
  0x04, 0xc1, 0x5f, 0xbe, 0x78, 0x01, 0x19, 0x3e, 0x64, 0xcd, 0x7c, 0xbe,
  0x60, 0xf9, 0x34, 0xbd, 0xa8, 0xcb, 0xc9, 0x3d, 0x48, 0xd7, 0x83, 0xbd,
  0x84, 0x9e, 0x08, 0x3e, 0x10, 0xf8, 0x2b, 0xbe, 0x00, 0x48, 0x5a, 0xbe,
  0x30, 0x50, 0xd2, 0x3d, 0x48, 0x12, 0x31, 0x3e, 0x34, 0x2b, 0x47, 0x3e,
  0x68, 0x5f, 0xc9, 0x3d, 0x54, 0x29, 0x76, 0xbe, 0xd8, 0x4d, 0x6a, 0xbe,
  0x40, 0x4b, 0x9b, 0xbc, 0x78, 0x93, 0x73, 0x3e, 0x40, 0x6c, 0x4f, 0x3c,
  0x80, 0xc6, 0xba, 0xbd, 0x3c, 0x53, 0x25, 0xbe, 0xf0, 0x21, 0x0d, 0xbe,
  0x10, 0xbe, 0x11, 0xbd, 0x08, 0x9c, 0xdc, 0x3d, 0xa0, 0xc3, 0x8d, 0xbd,
  0x18, 0x43, 0x78, 0xbe, 0xcc, 0x62, 0x09, 0x3e, 0x40, 0x2a, 0x55, 0x3c,
  0x6c, 0xed, 0x76, 0xbe, 0x30, 0xe1, 0x0d, 0x3d, 0x68, 0x17, 0x9f, 0xbd,
  0x00, 0x36, 0xa9, 0x3b, 0xe0, 0x2b, 0xb3, 0xbd, 0x90, 0x91, 0x6b, 0x3e,
  0x4c, 0x41, 0x28, 0xbe, 0x00, 0xc3, 0x45, 0xbb, 0x98, 0xcc, 0xf2, 0xbd,
  0x90, 0xc2, 0x09, 0xbd, 0x8c, 0x2f, 0x2c, 0xbe, 0x44, 0xbb, 0x22, 0xbe,
  0xf0, 0xc5, 0x03, 0xbd, 0xd8, 0x54, 0x08, 0xbe, 0xac, 0xb2, 0x4e, 0xbe,
  0x68, 0x33, 0xe4, 0xbd, 0xf8, 0xb7, 0xc1, 0x3d, 0x28, 0x8e, 0x77, 0xbe,
  0x00, 0x3f, 0x14, 0xbe, 0x90, 0x8c, 0x56, 0xbd, 0xa0, 0xba, 0x28, 0xbe,
  0x14, 0x84, 0x77, 0x3e, 0xdc, 0xd7, 0x2e, 0xbe, 0x1c, 0xe1, 0x72, 0x3e,
  0x90, 0xc1, 0x96, 0xbd, 0xf4, 0x65, 0x6c, 0x3e, 0x48, 0x52, 0x1d, 0xbe,
  0x40, 0xd6, 0x41, 0xbd, 0xc0, 0x7c, 0x64, 0x3d, 0xc8, 0x02, 0x4a, 0x3e,
  0x70, 0xfb, 0x56, 0xbe, 0xe8, 0x7a, 0x01, 0xbe, 0x5a, 0xe3, 0x4e, 0x3e,
  0x4b, 0x52, 0xcd, 0x3d, 0xf1, 0x85, 0x2f, 0xbe, 0x2e, 0xaf, 0x4e, 0xbe,
  0x00, 0x09, 0x61, 0xbb, 0x88, 0x00, 0x9e, 0xbd, 0x80, 0x81, 0xe2, 0xbc,
  0x30, 0x84, 0x0c, 0x3d, 0x1b, 0xc2, 0x83, 0xbe, 0xa5, 0xb3, 0x0f, 0x3e,
  0x12, 0x00, 0xc9, 0x3c, 0xba, 0x01, 0x32, 0xbe, 0xbf, 0x3a, 0xfc, 0x3c,
  0x7a, 0x95, 0x54, 0x3e, 0xe4, 0xa2, 0x46, 0xbe, 0x26, 0xbd, 0x25, 0xbe,
  0xa8, 0xe3, 0x0c, 0xbe, 0x94, 0x5d, 0x63, 0x3e, 0x5b, 0x93, 0x0b, 0x3e,
  0x2c, 0x5d, 0xc9, 0xbc, 0xa4, 0x4a, 0x4e, 0xbe, 0x17, 0x85, 0xab, 0x3d,
  0x84, 0xa0, 0x24, 0xbc, 0x90, 0xa3, 0x47, 0x3d, 0x78, 0x8f, 0xf9, 0xbd,
  0x24, 0xc3, 0x24, 0x3e, 0x08, 0x02, 0x63, 0xbe, 0x40, 0x2b, 0xa2, 0x3d,
  0xc8, 0xb2, 0xe5, 0x3d, 0xd7, 0x38, 0x68, 0x3e, 0x0f, 0x2c, 0x13, 0x3e,
  0x98, 0x06, 0x27, 0x3e, 0x6e, 0x7c, 0x67, 0x3e, 0x98, 0x19, 0xfa, 0xbd,
  0x48, 0x1f, 0x83, 0xbe, 0x12, 0x30, 0x45, 0x3d, 0x29, 0x88, 0x13, 0x3e,
  0x9a, 0xb5, 0x57, 0x3e, 0x86, 0x51, 0x78, 0xbd, 0xb8, 0x38, 0xc9, 0xbd,
  0x9f, 0x72, 0x6b, 0x3e, 0xca, 0x95, 0xfa, 0xbd, 0x72, 0x38, 0xf0, 0x3c,
  0xe0, 0x5b, 0x73, 0x3d, 0xea, 0x9f, 0x82, 0xbd, 0xe1, 0x68, 0xda, 0x3d,
  0xe0, 0x27, 0x28, 0x3e, 0x53, 0x45, 0x0d, 0xbd, 0x60, 0x31, 0x0e, 0x3d,
  0x50, 0x91, 0x3d, 0xbd, 0x06, 0x1e, 0x23, 0xbe, 0xfb, 0x3d, 0x02, 0x3e,
  0x43, 0x8a, 0x5c, 0xbb, 0x49, 0x47, 0x6f, 0x3e, 0x93, 0x20, 0x75, 0xbe,
  0x67, 0x96, 0x51, 0xbd, 0xcf, 0x26, 0xe6, 0xbd, 0xf8, 0xaa, 0x48, 0xbe,
  0x0f, 0x51, 0x89, 0xbd, 0x8c, 0x5d, 0xb3, 0xbd, 0x1c, 0xe9, 0x61, 0x3e,
  0x84, 0xa4, 0x6b, 0xbe, 0x5d, 0x2c, 0x2e, 0xbd, 0x08, 0xff, 0x44, 0x3e,
  0x58, 0x05, 0x8d, 0x3e, 0xd5, 0x80, 0x05, 0xbf, 0xe7, 0xd7, 0x24, 0x3e,
  0x97, 0x16, 0xb6, 0x3e, 0x1c, 0x4b, 0x4f, 0x3e, 0x38, 0x92, 0xf5, 0xbd,
  0xec, 0xd1, 0x3e, 0x3e, 0xf0, 0x29, 0x77, 0x3e, 0x31, 0x41, 0xad, 0xbc,
  0xb4, 0x11, 0xb2, 0x3d, 0x63, 0xed, 0xc0, 0x3c, 0x3d, 0x80, 0x16, 0x3e,
  0x29, 0x15, 0xac, 0x3b, 0x94, 0xc8, 0x25, 0x3c, 0xce, 0x68, 0xe9, 0x3e,
  0x9d, 0x6e, 0xd8, 0x3e, 0x79, 0x6a, 0x2d, 0x3e, 0x1b, 0x8b, 0x58, 0xbe,
  0xea, 0x01, 0x9c, 0x3e, 0xf8, 0x73, 0x25, 0x3e, 0x8a, 0x7f, 0x8d, 0xbe,
  0xc5, 0x6e, 0x44, 0xbe, 0x35, 0x92, 0xb1, 0x3e, 0xb0, 0x53, 0x9a, 0x3d,
  0xf4, 0xbb, 0x56, 0x3e, 0x2d, 0x92, 0xe3, 0x3e, 0x04, 0x9c, 0x2c, 0x3e,
  0xa8, 0x41, 0xfd, 0x3d, 0x30, 0x13, 0x14, 0xbe, 0xd6, 0xf6, 0xab, 0x3d,
  0x98, 0x41, 0x4d, 0xbe, 0x05, 0x4c, 0x9d, 0x3d, 0x41, 0xd4, 0xf4, 0xbb,
  0xec, 0x7b, 0x34, 0x3e, 0x01, 0xad, 0x13, 0x3e, 0x17, 0xec, 0x29, 0x3e,
  0x3e, 0xfe, 0x76, 0x3d, 0xb8, 0xe7, 0x4a, 0xbe, 0x1c, 0x72, 0xe0, 0x3e,
  0x8d, 0xbc, 0x38, 0xbe, 0x6f, 0xc3, 0x60, 0x3d, 0xf4, 0x9a, 0x8d, 0xbd,
  0x57, 0x38, 0x9d, 0xbc, 0xd4, 0x46, 0x50, 0x3e, 0xd6, 0x4f, 0x65, 0x3e,
  0xa7, 0x26, 0x81, 0x3e, 0x4f, 0xb7, 0xc1, 0x3e, 0x92, 0xd0, 0xbe, 0x3e,
  0x38, 0x05, 0x22, 0xbe, 0x9c, 0x0e, 0x7a, 0xbe, 0xa1, 0x4d, 0x42, 0xbe,
  0x8b, 0x1b, 0x86, 0xbe, 0xf3, 0x63, 0xbc, 0x3e, 0x4f, 0xbe, 0x81, 0xbe,
  0xa8, 0x57, 0x6b, 0x3e, 0x2b, 0x56, 0x83, 0xbd, 0xb9, 0x11, 0xc5, 0x3e,
  0x24, 0x1f, 0x7d, 0x3e, 0x1f, 0x19, 0x55, 0xbe, 0xc3, 0x20, 0x83, 0xbe,
  0xf7, 0x2a, 0x81, 0xbd, 0x20, 0xc9, 0xfe, 0xbd, 0xac, 0x1e, 0xac, 0x3d,
  0x80, 0xd2, 0xaf, 0xbd, 0x75, 0xad, 0xef, 0xbe, 0x19, 0x07, 0x7c, 0x3e,
  0x2e, 0xbf, 0x05, 0x3e, 0x20, 0x1c, 0x13, 0xbe, 0xe4, 0x2b, 0x0b, 0x3e,
  0xe0, 0x40, 0x35, 0xbe, 0xd8, 0x0c, 0x51, 0xbe, 0xdd, 0xbb, 0x13, 0xbe,
  0xb9, 0x46, 0x81, 0x3e, 0x6d, 0x41, 0x56, 0xbd, 0xd5, 0x53, 0xbd, 0x3e,
  0x4c, 0xf6, 0x7b, 0xbd, 0xc7, 0x74, 0x20, 0x3e, 0x10, 0x10, 0xbf, 0x3e,
  0x7f, 0x86, 0x9f, 0xbe, 0xa5, 0x31, 0x94, 0xbe, 0x7b, 0x24, 0x10, 0x3e,
  0x48, 0x21, 0x2d, 0xbb, 0x8b, 0xd0, 0x9b, 0xbe, 0x9b, 0x10, 0x23, 0x3d,
  0x30, 0xe8, 0xca, 0xbc, 0xe8, 0xc6, 0xa3, 0x3e, 0x09, 0xf0, 0x8f, 0xbe,
  0x08, 0xd1, 0x37, 0x3e, 0xf9, 0xac, 0xb4, 0xbe, 0x12, 0x47, 0xac, 0xbe,
  0xd8, 0x3e, 0x83, 0x3d, 0xa0, 0x02, 0x8a, 0xbd, 0x1c, 0x40, 0x31, 0xbe,
  0x33, 0xd0, 0x62, 0x3e, 0x5d, 0x0f, 0x28, 0xbc, 0x1c, 0x9d, 0x80, 0x3d,
  0x20, 0x5b, 0x6e, 0xbe, 0xe8, 0xcd, 0x7a, 0xbe, 0xa4, 0x3a, 0x5c, 0xbe,
  0xc4, 0xc0, 0xc2, 0xbd, 0x19, 0xd8, 0x09, 0x3e, 0x65, 0x53, 0x1b, 0x3d,
  0x16, 0x26, 0xf2, 0xbe, 0x2d, 0x9d, 0x95, 0x3e, 0x5a, 0x80, 0xca, 0xbd,
  0x92, 0x86, 0xe4, 0x3d, 0x30, 0xec, 0x17, 0xbe, 0x00, 0xce, 0x51, 0x3e,
  0x97, 0xf0, 0xca, 0xbd, 0x29, 0x7c, 0x9d, 0xbe, 0x1c, 0xef, 0x1a, 0xbf,
  0x68, 0xea, 0x54, 0xbe, 0x94, 0x0a, 0x3a, 0xbe, 0xc0, 0x0d, 0xde, 0xbc,
  0x58, 0x01, 0x1b, 0xbc, 0xdc, 0x8c, 0x9f, 0xbd, 0xbd, 0x30, 0xe6, 0xbe,
  0x37, 0xde, 0x50, 0xbe, 0x63, 0x4a, 0x62, 0x3e, 0x20, 0xc0, 0xd7, 0x3d,
  0xb3, 0xa9, 0xa1, 0xbe, 0x60, 0xe2, 0x25, 0x3e, 0xd2, 0xc5, 0xa5, 0x3e,
  0xbf, 0x12, 0xe8, 0x3e, 0xfa, 0x7d, 0xc0, 0xbb, 0x68, 0x01, 0x7b, 0x3e,
  0xbb, 0x38, 0xa2, 0x3d, 0xc0, 0xa0, 0xd8, 0xbd, 0xf8, 0x2b, 0xc6, 0xbd,
  0xf8, 0x95, 0xd6, 0x3d, 0x24, 0x33, 0x11, 0x3e, 0x84, 0x55, 0x2f, 0x3e,
  0xa0, 0x59, 0x04, 0xbd, 0x18, 0x16, 0xdb, 0x3d, 0x4c, 0xc0, 0x6e, 0xbe,
  0xb0, 0x5c, 0x49, 0xbe, 0xc0, 0x03, 0xa1, 0x3d, 0xfc, 0x02, 0x35, 0x3e,
  0xe8, 0x5c, 0xb2, 0xbd, 0x9c, 0x0e, 0x6f, 0xbe, 0x60, 0x91, 0x94, 0x3d,
  0xa0, 0x03, 0x4e, 0xbe, 0x60, 0x9c, 0x27, 0x3d, 0x90, 0x08, 0x39, 0x3e,
  0x90, 0x90, 0x84, 0xbd, 0xb4, 0xf3, 0x03, 0xbe, 0x0c, 0x07, 0x77, 0xbe,
  0xd0, 0x6a, 0x5b, 0xbd, 0x08, 0x0b, 0xc8, 0x3d, 0x90, 0x4e, 0x7f, 0x3e,
  0xc0, 0x4f, 0x93, 0x3d, 0x88, 0xc8, 0xe4, 0x3d, 0xf8, 0x5b, 0x09, 0x3e,
  0xe0, 0x64, 0xc3, 0x3c, 0x28, 0xf2, 0x18, 0x3e, 0x4c, 0x65, 0x0d, 0x3e,
  0x20, 0xb0, 0x85, 0xbc, 0x00, 0x75, 0x31, 0x3c, 0xc8, 0x86, 0x0e, 0xbe,
  0x38, 0x0e, 0x0d, 0xbe, 0x78, 0x6b, 0x85, 0xbd, 0xb8, 0x78, 0x53, 0x3e,
  0x20, 0x2d, 0x25, 0x3d, 0xe0, 0xee, 0xd6, 0xbc, 0xf0, 0x1d, 0x30, 0x3d,
  0x60, 0x10, 0xfb, 0x3d, 0xd0, 0xa5, 0x06, 0x3e, 0xd0, 0x64, 0x40, 0x3d,
  0xc0, 0x40, 0xe8, 0xbc, 0xc8, 0xa1, 0x47, 0xbe, 0x00, 0x4e, 0xcc, 0xba,
  0xc0, 0x8e, 0x68, 0x3d, 0x98, 0xaf, 0xf6, 0xbd, 0x58, 0x8e, 0x20, 0xbe,
  0x90, 0x78, 0x01, 0xbe, 0xc0, 0x80, 0xec, 0x3c, 0x9c, 0xc8, 0x42, 0x3e,
  0x64, 0x8c, 0x4a, 0xbe, 0xdc, 0x4c, 0x5a, 0xbe, 0x4c, 0x09, 0x35, 0xbe,
  0xb8, 0xcb, 0x6b, 0xbe, 0x64, 0x98, 0x31, 0x3e, 0x28, 0xd4, 0xb5, 0xbd,
  0xd8, 0x19, 0xb0, 0x3d, 0x0c, 0x4e, 0x2b, 0xbe, 0x7c, 0x9a, 0x25, 0x3e,
  0xc0, 0x78, 0x91, 0xbc, 0xe4, 0x52, 0x50, 0xbe, 0xe0, 0x79, 0x8a, 0x3c,
  0x50, 0x24, 0x8e, 0xbd, 0x00, 0x27, 0xbe, 0xbb, 0x1c, 0x97, 0x02, 0xbe,
  0xba, 0xb6, 0xd7, 0x3d, 0xce, 0x03, 0x82, 0x3e, 0x8c, 0xa2, 0x4f, 0xbd,
  0x48, 0x71, 0x1c, 0xbe, 0xdc, 0x4b, 0x3a, 0xbe, 0xa0, 0xb7, 0x59, 0xbe,
  0x58, 0xd2, 0x17, 0x3e, 0xcc, 0x3e, 0x34, 0xbd, 0xcb, 0x3c, 0x15, 0x3e,
  0xc1, 0xd9, 0x00, 0xbe, 0x94, 0xcf, 0xdc, 0x3d, 0x8a, 0x52, 0x3d, 0x3e,
  0xa6, 0x52, 0x27, 0x3d, 0x3d, 0xd7, 0x05, 0xbe, 0xd4, 0xdf, 0xde, 0xbe,
  0xd1, 0x00, 0x46, 0xbe, 0xef, 0xa2, 0x28, 0x3e, 0x82, 0x24, 0x0d, 0x3e,
  0x87, 0xeb, 0x1e, 0xbd, 0x74, 0x61, 0x12, 0x3e, 0xcb, 0x18, 0x27, 0x3d,
  0x01, 0x92, 0xaf, 0x3e, 0xfa, 0xd9, 0x3f, 0xbe, 0xc0, 0xc2, 0x56, 0xbd,
  0x45, 0x7c, 0x54, 0x3d, 0xc0, 0x57, 0x92, 0xbe, 0xf0, 0x11, 0x80, 0xbd,
  0x90, 0x4f, 0x80, 0x3d, 0xe0, 0xa0, 0x7e, 0x3e, 0xf5, 0x95, 0x37, 0xbe,
  0x10, 0x06, 0x92, 0x3e, 0xdc, 0x37, 0x09, 0x3e, 0x6c, 0x91, 0xab, 0x3d,
  0x34, 0xaf, 0x07, 0xbe, 0x0b, 0x79, 0xec, 0xbd, 0xff, 0x2f, 0xaa, 0xbe,
  0x6c, 0x21, 0x2d, 0xbd, 0x5f, 0xf2, 0x33, 0x3e, 0x3b, 0xc5, 0x9a, 0x3d,
  0xb1, 0xac, 0xc6, 0xbd, 0x75, 0xd5, 0x33, 0x3e, 0xaa, 0x26, 0x1c, 0xbd,
  0x12, 0x56, 0x24, 0xbe, 0x28, 0x79, 0xfe, 0x3d, 0xab, 0x5a, 0x7a, 0xbe,
  0xca, 0xe1, 0x37, 0xbd, 0x8b, 0x99, 0xf1, 0xbe, 0xbc, 0x06, 0xe8, 0xbd,
  0xd4, 0x52, 0x50, 0xbe, 0xe0, 0xd3, 0xcc, 0x3d, 0xe9, 0xc1, 0x81, 0x3e,
  0x41, 0xe4, 0x25, 0x3e, 0xdf, 0x25, 0xd9, 0x3d, 0xeb, 0xda, 0x54, 0x3e,
  0xb0, 0x3d, 0xa3, 0x3d, 0x56, 0xfe, 0xa4, 0x3d, 0x65, 0xf9, 0xf5, 0xbd,
  0x80, 0xba, 0x4e, 0x3e, 0x8f, 0x6a, 0x2a, 0xbe, 0x17, 0x46, 0xfc, 0x3d,
  0x84, 0x5f, 0xb2, 0x3d, 0xc0, 0xd6, 0x69, 0x3c, 0x94, 0x6d, 0x59, 0x3e,
  0xb0, 0x7e, 0xb2, 0xbd, 0x1f, 0x6c, 0x9e, 0x3e, 0x47, 0xfe, 0x4d, 0xbe,
  0x4c, 0x55, 0x7b, 0x3e, 0xf5, 0xb0, 0x36, 0x3e, 0xb0, 0x60, 0x01, 0x3d,
  0x34, 0x0d, 0x07, 0xbe, 0x34, 0xd4, 0x1d, 0xbe, 0x2d, 0x4f, 0x13, 0xbe,
  0x44, 0x4b, 0x41, 0xbc, 0x9e, 0xb6, 0x26, 0x3e, 0x3f, 0x88, 0xbf, 0xbe,
  0x01, 0x48, 0x2c, 0x3d, 0xe7, 0x1d, 0x39, 0x3c, 0x5c, 0x99, 0xf4, 0x3d,
  0xf2, 0xb3, 0x91, 0x3e, 0xf8, 0x7f, 0x95, 0x3e, 0x0c, 0x13, 0x9b, 0x3e,
  0x7f, 0xd9, 0x9e, 0xbd, 0x61, 0x2c, 0xb4, 0x3e, 0x71, 0xb3, 0x66, 0x3d,
  0x95, 0xf6, 0x96, 0x3d, 0x21, 0xc1, 0xfe, 0x3d, 0xad, 0x3b, 0x5b, 0x3e,
  0xb8, 0x29, 0x4f, 0xbe, 0x23, 0xd7, 0x8a, 0x3d, 0x48, 0x78, 0x6e, 0x3e,
  0x70, 0xa9, 0x1f, 0x3e, 0x98, 0xe5, 0xb0, 0x3d, 0x90, 0x41, 0x49, 0x3d,
  0x04, 0x0c, 0x14, 0x3e, 0x86, 0x57, 0xd9, 0xbd, 0x68, 0x41, 0x22, 0xbe,
  0x06, 0xb4, 0x6c, 0x3e, 0xc0, 0xda, 0x38, 0xbe, 0x6a, 0xd5, 0xab, 0x3d,
  0x56, 0xaa, 0x49, 0x3e, 0xab, 0x01, 0xd3, 0x3d, 0xc1, 0xd2, 0x6d, 0x3e,
  0x3b, 0x3b, 0x92, 0x3e, 0xf4, 0xa1, 0x78, 0xbe, 0x6d, 0x09, 0xb0, 0x3d,
  0xe4, 0x82, 0xf5, 0xbd, 0x21, 0x05, 0x86, 0x3e, 0x98, 0xd9, 0xc8, 0x3d,
  0xf9, 0x93, 0x20, 0xbe, 0x7c, 0xaf, 0xc8, 0x3e, 0x9e, 0x46, 0x09, 0x3f,
  0x1b, 0x54, 0xdb, 0x3e, 0x68, 0x1c, 0xd8, 0x3d, 0x0c, 0x79, 0x10, 0x3e,
  0x69, 0x18, 0x08, 0x3e, 0x60, 0x49, 0x16, 0xbd, 0x29, 0xe7, 0xfc, 0x3d,
  0xc1, 0x7b, 0x13, 0x3e, 0x27, 0xe6, 0x62, 0xbe, 0x76, 0x3d, 0x33, 0x3e,
  0x6b, 0xda, 0x9d, 0x3d, 0xc8, 0x26, 0xb0, 0x3d, 0xa6, 0x36, 0x94, 0xbe,
  0x2f, 0x56, 0xaf, 0xbd, 0x28, 0x19, 0x05, 0xbe, 0x30, 0xa5, 0xc9, 0xbd,
  0xb9, 0xc4, 0xb2, 0x3d, 0xd0, 0x4a, 0xac, 0x3d, 0xda, 0x36, 0x0c, 0x3d,
  0xe5, 0x0a, 0xf0, 0xbe, 0xa9, 0x38, 0x95, 0x3e, 0x74, 0xcc, 0x7d, 0x3e,
  0x98, 0x31, 0x52, 0xbe, 0x04, 0x7e, 0x0c, 0x3e, 0x28, 0x39, 0x61, 0xbe,
  0x18, 0x81, 0x45, 0xbe, 0x0f, 0x52, 0x97, 0xbe, 0x7e, 0x93, 0xfa, 0x3d,
  0x54, 0xe9, 0xbc, 0xbe, 0x6e, 0xfe, 0xbf, 0x3d, 0x2f, 0x77, 0xdc, 0xbd,
  0xab, 0x43, 0x12, 0xbd, 0xe1, 0xfc, 0xce, 0x3e, 0xad, 0xb2, 0x9c, 0x3c,
  0xf8, 0x40, 0xb9, 0x3d, 0x0d, 0x2a, 0x67, 0xbe, 0xf2, 0x1a, 0xb4, 0xbd,
  0x73, 0x4a, 0x80, 0x3e, 0x9c, 0x51, 0xb8, 0xbe, 0x08, 0x34, 0xb3, 0xbe,
  0x79, 0xc3, 0xef, 0x3e, 0xdc, 0xf7, 0x3d, 0xbe, 0xc0, 0xb2, 0x9c, 0x3e,
  0x58, 0xf6, 0x61, 0xbe, 0x80, 0x08, 0xa1, 0xbd, 0xa0, 0x48, 0x36, 0xbd,
  0xf0, 0xe1, 0x02, 0xbe, 0xba, 0x5d, 0x04, 0x3e, 0xe0, 0xaf, 0x54, 0xbe,
  0x17, 0xc0, 0xe0, 0x3d, 0x8f, 0xee, 0x40, 0x3e, 0x90, 0x02, 0xd5, 0xbd,
  0x01, 0x74, 0xb6, 0x3e, 0x07, 0x0a, 0xd7, 0x3e, 0x7b, 0x71, 0xa4, 0x3e,
  0xcb, 0x46, 0x04, 0xbd, 0xaa, 0xb5, 0xeb, 0x3e, 0x69, 0x2f, 0x0c, 0xbd,
  0x55, 0x3a, 0xcd, 0xbd, 0x44, 0x94, 0x6d, 0xbe, 0xa2, 0xa3, 0x1d, 0xbe,
  0x60, 0x76, 0xf9, 0x3d, 0xf5, 0x05, 0xbe, 0x3e, 0xa1, 0xa2, 0x9e, 0x3e,
  0x7d, 0x72, 0x69, 0xbd, 0x50, 0xdd, 0xf9, 0x3e, 0x08, 0x62, 0x45, 0x3e,
  0xd8, 0x6c, 0x56, 0x3e, 0x35, 0x92, 0x03, 0x3c, 0xb1, 0xaa, 0xb8, 0xbe,
  0x98, 0xc5, 0xc7, 0xbb, 0x8f, 0x93, 0x2e, 0x3e, 0x23, 0x46, 0x93, 0xbc,
  0x0a, 0x25, 0x9e, 0x3b, 0x27, 0x05, 0xdb, 0x3e, 0x78, 0x18, 0xd1, 0x3d,
  0x1e, 0x82, 0x37, 0xbe, 0x3d, 0xb1, 0xec, 0xbe, 0xa9, 0xe9, 0x29, 0xbe,
  0x10, 0x1f, 0x1f, 0x3d, 0x1b, 0xdd, 0x5e, 0x3b, 0x44, 0x07, 0x15, 0x3e,
  0x26, 0x93, 0x6a, 0x3c, 0x8c, 0x93, 0x19, 0xbf, 0xa0, 0x20, 0x2f, 0x3e,
  0xbc, 0x87, 0x03, 0x3e, 0xc0, 0x3d, 0xe1, 0xbc, 0x80, 0x0f, 0xed, 0x3b,
  0x04, 0x68, 0x47, 0xbe, 0x70, 0x04, 0x4a, 0xbd, 0xcc, 0x54, 0x22, 0x3d,
  0xc3, 0x73, 0x0c, 0xbe, 0xed, 0x5b, 0xe4, 0xbe, 0x82, 0x6f, 0x4d, 0x3e,
  0x12, 0x51, 0x5e, 0xbe, 0xec, 0x26, 0xfc, 0xbd, 0xc8, 0x4c, 0xce, 0x3e,
  0x33, 0xb5, 0xb5, 0x3d, 0x74, 0x03, 0x1e, 0x3e, 0x46, 0x7e, 0x1f, 0x3c,
  0x1b, 0x42, 0x49, 0x3d, 0x41, 0x20, 0xc5, 0x3e, 0x4c, 0x51, 0x93, 0xbe,
  0xcf, 0x34, 0x09, 0xbe, 0x3a, 0xd4, 0xc5, 0x3e, 0xac, 0x69, 0x22, 0x3e,
  0xc9, 0x6a, 0xbc, 0x3c, 0xb5, 0x4e, 0x54, 0x3d, 0xd4, 0x44, 0x19, 0xbe,
  0xd0, 0x37, 0x34, 0x3e, 0x10, 0xf9, 0xf6, 0x3d, 0xb7, 0x69, 0x01, 0x3e,
  0xb0, 0xcf, 0x7e, 0x3c, 0x00, 0xfe, 0x1b, 0xbe, 0xd2, 0xbc, 0x39, 0x3e,
  0x40, 0x7f, 0x57, 0xbe, 0x7f, 0x8b, 0x9a, 0x3d, 0x29, 0x8c, 0x9e, 0x3e,
  0x4f, 0x70, 0xf0, 0x3c, 0xcd, 0xe9, 0x44, 0xbd, 0xbe, 0xa7, 0xbd, 0x3e,
  0x22, 0x91, 0x6b, 0xbe, 0x51, 0x66, 0x32, 0x3e, 0x0c, 0x8f, 0xc5, 0xbd,
  0x80, 0x7e, 0x06, 0xbe, 0x28, 0x06, 0xe9, 0xbd, 0x3a, 0xe6, 0x35, 0xbe,
  0x49, 0x27, 0xd0, 0x3e, 0xa5, 0x36, 0xb9, 0xbe, 0xa5, 0xa8, 0xf2, 0x3e,
  0x28, 0xab, 0x38, 0xbe, 0x34, 0xbd, 0x52, 0x3e, 0xa1, 0xc5, 0x66, 0x3e,
  0xa6, 0xe4, 0xaf, 0xbe, 0x73, 0x27, 0xb4, 0xbd, 0x93, 0x69, 0xb8, 0xbd,
  0xa0, 0x70, 0x85, 0xbe, 0x5c, 0xdf, 0xe2, 0xbc, 0xd8, 0x0c, 0x34, 0x3e,
  0x28, 0xd4, 0x10, 0x3e, 0xa5, 0x7d, 0x16, 0xbe, 0x33, 0xdf, 0x13, 0xbd,
  0x21, 0x7a, 0x18, 0xbe, 0xb0, 0x7a, 0x5d, 0xbd, 0xaf, 0xb9, 0xb3, 0xbd,
  0xb2, 0xfa, 0xff, 0xff, 0x04, 0x00, 0x00, 0x00, 0x00, 0x03, 0x00, 0x00,
  0x8a, 0x6b, 0xd7, 0xbd, 0x40, 0xd3, 0x2f, 0xbc, 0xb0, 0xc4, 0x83, 0xbc,
  0x85, 0x4f, 0x98, 0xbe, 0x11, 0x4b, 0xb0, 0xbd, 0xe2, 0xd0, 0xd8, 0x3e,
  0x98, 0x26, 0x9f, 0x3e, 0x8d, 0xce, 0x7e, 0xbe, 0x16, 0x5b, 0xd4, 0x3d,
  0x3c, 0x1d, 0x12, 0xbe, 0x54, 0x41, 0xe1, 0xbd, 0x2c, 0xa6, 0x93, 0x3e,
  0xa1, 0xcc, 0x22, 0xbe, 0x42, 0xa7, 0xa6, 0x3e, 0x45, 0x0b, 0xc3, 0x3e,
  0x10, 0xe7, 0x8b, 0x3d, 0xf8, 0x7b, 0x35, 0xbe, 0x30, 0xfd, 0xeb, 0xbc,
  0xa0, 0x02, 0x04, 0x3c, 0xe6, 0x14, 0x8a, 0xbd, 0x26, 0x18, 0xf5, 0xbd,
  0x23, 0x7f, 0x97, 0xbe, 0xb6, 0x67, 0x75, 0xbe, 0x56, 0x84, 0x1d, 0xbe,
  0x85, 0xb3, 0xbc, 0x3d, 0x13, 0x8e, 0x75, 0xbe, 0x80, 0x17, 0x13, 0xbd,
  0xef, 0x6a, 0xa5, 0x3e, 0x5e, 0xec, 0x32, 0xbe, 0xf1, 0xb9, 0x86, 0xbd,
  0x3a, 0xbd, 0x05, 0xbe, 0x18, 0x60, 0x85, 0xbe, 0x65, 0xec, 0x92, 0x3d,
  0x68, 0x35, 0xe0, 0x3e, 0xf7, 0x69, 0x84, 0xbe, 0x95, 0xc3, 0x09, 0xbe,
  0xa5, 0xee, 0xb5, 0x3e, 0xa0, 0x53, 0x04, 0x3e, 0x55, 0x25, 0x63, 0x3d,
  0xda, 0x1f, 0x80, 0x3e, 0x48, 0xda, 0x91, 0xbe, 0x7f, 0xa3, 0x5b, 0x3e,
  0x03, 0x68, 0xbc, 0x3e, 0x33, 0x79, 0xf8, 0xbd, 0x77, 0x2b, 0xe2, 0xbd,
  0x4e, 0xc9, 0x66, 0xbe, 0x2a, 0xc4, 0x4e, 0x3e, 0x7b, 0xfe, 0xba, 0x3d,
  0x99, 0xd5, 0x82, 0xbe, 0xb6, 0xc4, 0x17, 0x3e, 0x4b, 0xc0, 0x3f, 0x3e,
  0x27, 0x6a, 0xbe, 0x3c, 0x4e, 0x09, 0xe5, 0x3e, 0xdf, 0x0e, 0xd9, 0x3e,
  0x6e, 0xf4, 0x99, 0x3e, 0xef, 0xa0, 0x71, 0x3e, 0xca, 0x75, 0x99, 0xbe,
  0x7f, 0x91, 0x9a, 0xbd, 0xa7, 0xba, 0x3a, 0x3e, 0x07, 0x51, 0x25, 0x3e,
  0x2f, 0x2a, 0xbd, 0xbd, 0xe7, 0xbb, 0x45, 0x3e, 0xe3, 0x94, 0xc7, 0x3e,
  0x59, 0x39, 0xc4, 0x3e, 0x9a, 0x39, 0xdd, 0x3d, 0x82, 0x1d, 0x3a, 0xbe,
  0xc2, 0x1c, 0xd9, 0x3e, 0x8a, 0x5c, 0x38, 0xbd, 0x42, 0xcb, 0x49, 0xbe,
  0xc8, 0xf2, 0xc3, 0xbe, 0xea, 0x63, 0x9a, 0x3e, 0x98, 0xd7, 0x8d, 0x3e,
  0x3a, 0x05, 0x08, 0xbe, 0xf8, 0x2e, 0x48, 0xbe, 0x32, 0x3a, 0x84, 0xbe,
  0xbf, 0xfd, 0x47, 0x3e, 0x09, 0xdd, 0xd6, 0xbc, 0xf0, 0x08, 0x91, 0xbe,
  0xfc, 0x85, 0x65, 0x3e, 0xfb, 0xe3, 0x43, 0xbe, 0x1d, 0x89, 0x5a, 0xbe,
  0xac, 0x31, 0x8d, 0xbe, 0x16, 0x73, 0x69, 0xbe, 0xf0, 0xff, 0xc7, 0x3c,
  0xf8, 0xea, 0x4d, 0x3d, 0xd0, 0x56, 0xe2, 0xbc, 0x64, 0x35, 0x05, 0xbe,
  0x00, 0xcb, 0x21, 0x3c, 0x99, 0x3d, 0x51, 0xbe, 0x27, 0xd8, 0x95, 0xbe,
  0x87, 0x6f, 0x71, 0x3e, 0xa7, 0xb5, 0x66, 0x3d, 0x70, 0x9d, 0xd1, 0x3c,
  0x25, 0xf8, 0x6b, 0x3e, 0xbb, 0x49, 0x01, 0xbe, 0x4c, 0x2f, 0x0f, 0x3c,
  0xb8, 0x2a, 0xdd, 0x3e, 0x30, 0x79, 0x4f, 0x3c, 0xc6, 0x7f, 0x69, 0xbe,
  0xe5, 0xea, 0xa4, 0xbe, 0x43, 0x2c, 0x1a, 0x3e, 0x11, 0xaf, 0xd4, 0x3e,
  0xc0, 0x15, 0xc7, 0x3b, 0x34, 0x54, 0x7a, 0xbe, 0xca, 0xe2, 0x9f, 0xbd,
  0xad, 0x04, 0x8d, 0xbe, 0xb6, 0xca, 0x91, 0x3e, 0xba, 0x70, 0x48, 0x3e,
  0xb7, 0x64, 0xbc, 0xbe, 0x57, 0xfa, 0x88, 0x3d, 0xe7, 0x2c, 0xc4, 0x3e,
  0x4e, 0x86, 0x97, 0xbd, 0x8a, 0x1c, 0x86, 0x3e, 0xdd, 0xb9, 0xb4, 0x3d,
  0xb2, 0x50, 0x90, 0x3e, 0xf0, 0xa3, 0x17, 0xbe, 0xb3, 0x50, 0x25, 0x3e,
  0x03, 0x2b, 0x8f, 0xbe, 0x4f, 0x0d, 0x9b, 0x3e, 0x10, 0x34, 0x4b, 0x3e,
  0xc1, 0x62, 0xa7, 0x3e, 0xcb, 0x32, 0x0a, 0x3e, 0x5c, 0xf8, 0x9e, 0xbe,
  0x28, 0xbd, 0x91, 0x3e, 0x10, 0x5c, 0xe5, 0x3d, 0x97, 0x53, 0xcc, 0xbd,
  0x8d, 0x5e, 0x8f, 0x3e, 0xd8, 0x7e, 0x61, 0x3e, 0xf1, 0xe9, 0x82, 0xbe,
  0x1f, 0x77, 0x27, 0x3e, 0xb5, 0xff, 0x3f, 0xbe, 0x6a, 0xd9, 0xa9, 0xbc,
  0x38, 0x44, 0x49, 0xbd, 0xde, 0xa0, 0x33, 0xbe, 0x89, 0x53, 0x35, 0xbe,
  0x21, 0xd7, 0x51, 0xbe, 0xa4, 0xe9, 0x8e, 0xbe, 0xb8, 0xa9, 0xef, 0x3d,
  0x8d, 0x34, 0x9d, 0xbe, 0x1e, 0x32, 0x55, 0xbd, 0x0f, 0xc5, 0xd5, 0x3e,
  0xc2, 0x4c, 0x24, 0x3e, 0x7b, 0xa1, 0x84, 0xbe, 0xf3, 0xbd, 0x91, 0xbd,
  0x5d, 0x1d, 0xb9, 0xbe, 0x74, 0xb6, 0x61, 0x3e, 0xe8, 0x20, 0x29, 0x3e,
  0xba, 0x29, 0xe0, 0xbd, 0x28, 0x11, 0xda, 0x3d, 0x7b, 0xcc, 0x50, 0xbe,
  0xd0, 0x54, 0x13, 0xbe, 0x30, 0x0e, 0xea, 0x3c, 0xdc, 0x0d, 0x86, 0xbd,
  0xd9, 0x17, 0xbd, 0x3e, 0xda, 0x10, 0xa3, 0xbd, 0x9a, 0xd2, 0x88, 0x3e,
  0xdc, 0x99, 0x89, 0x3e, 0x9f, 0x27, 0xbd, 0x3d, 0xc6, 0x2d, 0x45, 0xbe,
  0xc2, 0xf4, 0xe9, 0xbd, 0xca, 0xdc, 0xa9, 0x3c, 0xcc, 0xff, 0xa4, 0x3e,
  0xa8, 0xf5, 0x18, 0xbd, 0xc4, 0x7f, 0x8e, 0xbe, 0x68, 0x4b, 0x48, 0x3d,
  0xea, 0x58, 0xe2, 0x3e, 0xfe, 0xeb, 0x99, 0x3c, 0x01, 0xf6, 0x95, 0x3c,
  0x75, 0x41, 0x73, 0x3d, 0x95, 0xaa, 0x2b, 0xba, 0xb4, 0x1e, 0xd9, 0xbc,
  0x60, 0x23, 0xc2, 0xbe, 0x17, 0x44, 0xbf, 0x3e, 0x03, 0x51, 0x03, 0x3e,
  0xc0, 0x0a, 0x42, 0xbe, 0xdc, 0x13, 0x95, 0xbd, 0x00, 0x68, 0x8e, 0x39,
  0x9e, 0x45, 0xbd, 0x3e, 0x2a, 0x6e, 0x5a, 0xbe, 0xf8, 0x89, 0x9c, 0x3d,
  0x42, 0x99, 0x4b, 0x3e, 0xef, 0x6c, 0x80, 0xbe, 0xb8, 0xf6, 0x2e, 0x3e,
  0xf6, 0x98, 0x24, 0xbe, 0x1a, 0x1a, 0x6e, 0xbe, 0x60, 0x1c, 0x6a, 0x3d,
  0xb8, 0x14, 0xda, 0xbd, 0x5c, 0xc5, 0x2e, 0x3e, 0xf2, 0x0d, 0x91, 0xbe,
  0x93, 0xf4, 0x85, 0x3e, 0x57, 0x9f, 0xb6, 0x3d, 0x63, 0x72, 0x02, 0xbe,
  0xbe, 0xfd, 0xff, 0xff, 0x04, 0x00, 0x00, 0x00, 0x00, 0x01, 0x00, 0x00,
  0x00, 0x00, 0x00, 0x00, 0x7a, 0x13, 0x2b, 0x3d, 0x4f, 0x0f, 0x83, 0xbd,
  0x6f, 0xf3, 0xdc, 0x3d, 0x5c, 0xf0, 0xf7, 0x38, 0x00, 0x00, 0x00, 0x00,
  0x00, 0x00, 0x00, 0x00, 0x00, 0x00, 0x00, 0x00, 0x5e, 0x8c, 0xa8, 0xbb,
  0x17, 0x94, 0x76, 0x3d, 0x79, 0x59, 0xc2, 0xbb, 0x67, 0xc1, 0x71, 0xbc,
  0x94, 0x5b, 0x4a, 0x3d, 0xc8, 0xdc, 0xa6, 0x3c, 0x2b, 0x85, 0x1f, 0x3d,
  0x4a, 0x0f, 0x10, 0x3c, 0xeb, 0x5d, 0x14, 0x3d, 0xf4, 0xb8, 0xe2, 0x3d,
  0x7a, 0x19, 0x27, 0x3d, 0x1c, 0xed, 0x37, 0x3d, 0x27, 0x96, 0xd3, 0x3c,
  0xd6, 0x9a, 0xa2, 0xbb, 0x70, 0x09, 0x2c, 0x3d, 0xb3, 0x35, 0x1e, 0x3d,
  0x00, 0x00, 0x00, 0x00, 0x38, 0xa1, 0x3f, 0x3a, 0xa9, 0x51, 0x9b, 0x3c,
  0x00, 0x00, 0x00, 0x00, 0x00, 0x00, 0x00, 0x00, 0x00, 0x00, 0x00, 0x00,
  0xba, 0xf7, 0xb1, 0x3c, 0xaf, 0x03, 0x2c, 0x3d, 0x78, 0xad, 0x10, 0x3d,
  0xc4, 0xbb, 0x82, 0x3c, 0x00, 0x00, 0x00, 0x00, 0x9a, 0x1a, 0xb0, 0xbc,
  0x64, 0x34, 0xb0, 0x3c, 0x54, 0xef, 0x52, 0x3d, 0x17, 0xb6, 0xec, 0xbc,
  0xe7, 0x9e, 0x06, 0x3c, 0x2a, 0xca, 0x88, 0x3d, 0x4a, 0x6e, 0x41, 0x3d,
  0xcc, 0x6e, 0xc6, 0x3c, 0x5e, 0x2d, 0xe9, 0xbc, 0x00, 0x00, 0x00, 0x00,
  0x44, 0xcb, 0xc1, 0xbc, 0x48, 0xc0, 0x06, 0x3d, 0x03, 0x79, 0x7a, 0x3b,
  0x7c, 0xb6, 0xa0, 0x3d, 0x00, 0x00, 0x00, 0x00, 0x00, 0x00, 0x00, 0x00,
  0x22, 0x05, 0x14, 0x3e, 0x4d, 0xb7, 0xd0, 0x3c, 0x89, 0xe8, 0x2b, 0xbd,
  0x56, 0x41, 0x70, 0xbc, 0x7c, 0xf0, 0x28, 0x3d, 0xca, 0x25, 0x18, 0xbd,
  0x36, 0x81, 0x4f, 0x3d, 0x00, 0x00, 0x00, 0x00, 0x16, 0xee, 0x82, 0xbc,
  0xaa, 0xd6, 0x37, 0xbd, 0x7e, 0x44, 0x91, 0xbc, 0x00, 0x00, 0x00, 0x00,
  0xf8, 0x83, 0xc8, 0x3a, 0xca, 0xfe, 0xff, 0xff, 0x04, 0x00, 0x00, 0x00,
  0x80, 0x00, 0x00, 0x00, 0x39, 0x6a, 0xd0, 0xbc, 0x38, 0x7b, 0x98, 0x3d,
  0x00, 0x00, 0x00, 0x00, 0x4d, 0x2f, 0xe7, 0x3b, 0x9c, 0x24, 0xf5, 0x3c,
  0xd0, 0x00, 0x47, 0xbc, 0xfd, 0xe3, 0x80, 0x3d, 0xe0, 0x9c, 0x4e, 0xbc,
  0xda, 0x5d, 0x5c, 0x3d, 0x00, 0x00, 0x00, 0x00, 0xba, 0x89, 0x79, 0x3d,
  0x8a, 0x7a, 0x9b, 0x3d, 0x64, 0x2a, 0x09, 0xbb, 0x00, 0x00, 0x00, 0x00,
  0xc5, 0x64, 0x80, 0xbc, 0x20, 0xe8, 0xbb, 0x3d, 0xfd, 0xff, 0x85, 0x3d,
  0x00, 0x00, 0x00, 0x00, 0x55, 0x26, 0x8f, 0xbc, 0x47, 0x78, 0x50, 0x3d,
  0x00, 0x00, 0x00, 0x00, 0x2d, 0x68, 0x95, 0x3d, 0x94, 0xf9, 0x85, 0xbc,
  0x00, 0x00, 0x00, 0x00, 0x48, 0x9f, 0x92, 0xbc, 0xc5, 0x0b, 0x81, 0x3d,
  0x12, 0x8a, 0x0a, 0xbc, 0x00, 0x00, 0x00, 0x00, 0xb6, 0x66, 0xca, 0xbc,
  0x25, 0xf6, 0x65, 0x3d, 0x55, 0x43, 0xd7, 0x3d, 0x68, 0x1d, 0xa6, 0x3d,
  0x56, 0xff, 0xff, 0xff, 0x04, 0x00, 0x00, 0x00, 0x08, 0x00, 0x00, 0x00,
  0x06, 0x2d, 0x50, 0xbd, 0xf9, 0x2c, 0x50, 0x3d, 0x4c, 0xfa, 0xff, 0xff,
  0x50, 0xfa, 0xff, 0xff, 0x0f, 0x00, 0x00, 0x00, 0x4d, 0x4c, 0x49, 0x52,
  0x20, 0x43, 0x6f, 0x6e, 0x76, 0x65, 0x72, 0x74, 0x65, 0x64, 0x2e, 0x00,
  0x01, 0x00, 0x00, 0x00, 0x14, 0x00, 0x00, 0x00, 0x00, 0x00, 0x0e, 0x00,
  0x18, 0x00, 0x14, 0x00, 0x10, 0x00, 0x0c, 0x00, 0x08, 0x00, 0x04, 0x00,
  0x0e, 0x00, 0x00, 0x00, 0x14, 0x00, 0x00, 0x00, 0x1c, 0x00, 0x00, 0x00,
  0x24, 0x01, 0x00, 0x00, 0x28, 0x01, 0x00, 0x00, 0x2c, 0x01, 0x00, 0x00,
  0x04, 0x00, 0x00, 0x00, 0x6d, 0x61, 0x69, 0x6e, 0x00, 0x00, 0x00, 0x00,
  0x04, 0x00, 0x00, 0x00, 0xcc, 0x00, 0x00, 0x00, 0x84, 0x00, 0x00, 0x00,
  0x50, 0x00, 0x00, 0x00, 0x14, 0x00, 0x00, 0x00, 0x00, 0x00, 0x0e, 0x00,
  0x1a, 0x00, 0x14, 0x00, 0x10, 0x00, 0x0c, 0x00, 0x0b, 0x00, 0x04, 0x00,
  0x0e, 0x00, 0x00, 0x00, 0x1c, 0x00, 0x00, 0x00, 0x00, 0x00, 0x00, 0x09,
  0x1c, 0x00, 0x00, 0x00, 0x20, 0x00, 0x00, 0x00, 0x01, 0x00, 0x00, 0x00,
  0x00, 0x00, 0x06, 0x00, 0x08, 0x00, 0x04, 0x00, 0x06, 0x00, 0x00, 0x00,
  0x00, 0x00, 0x80, 0x3f, 0x01, 0x00, 0x00, 0x00, 0x0a, 0x00, 0x00, 0x00,
  0x01, 0x00, 0x00, 0x00, 0x09, 0x00, 0x00, 0x00, 0x9a, 0xff, 0xff, 0xff,
  0x10, 0x00, 0x00, 0x00, 0x00, 0x00, 0x00, 0x08, 0x0c, 0x00, 0x00, 0x00,
  0x10, 0x00, 0x00, 0x00, 0x14, 0xfb, 0xff, 0xff, 0x01, 0x00, 0x00, 0x00,
  0x09, 0x00, 0x00, 0x00, 0x03, 0x00, 0x00, 0x00, 0x08, 0x00, 0x00, 0x00,
  0x06, 0x00, 0x00, 0x00, 0x01, 0x00, 0x00, 0x00, 0xca, 0xff, 0xff, 0xff,
  0x10, 0x00, 0x00, 0x00, 0x00, 0x00, 0x00, 0x08, 0x10, 0x00, 0x00, 0x00,
  0x14, 0x00, 0x00, 0x00, 0xba, 0xff, 0xff, 0xff, 0x00, 0x00, 0x00, 0x01,
  0x01, 0x00, 0x00, 0x00, 0x08, 0x00, 0x00, 0x00, 0x03, 0x00, 0x00, 0x00,
  0x07, 0x00, 0x00, 0x00, 0x05, 0x00, 0x00, 0x00, 0x02, 0x00, 0x00, 0x00,
  0x00, 0x00, 0x0e, 0x00, 0x16, 0x00, 0x00, 0x00, 0x10, 0x00, 0x0c, 0x00,
  0x0b, 0x00, 0x04, 0x00, 0x0e, 0x00, 0x00, 0x00, 0x18, 0x00, 0x00, 0x00,
  0x00, 0x00, 0x00, 0x08, 0x18, 0x00, 0x00, 0x00, 0x1c, 0x00, 0x00, 0x00,
  0x00, 0x00, 0x06, 0x00, 0x08, 0x00, 0x07, 0x00, 0x06, 0x00, 0x00, 0x00,
  0x00, 0x00, 0x00, 0x01, 0x01, 0x00, 0x00, 0x00, 0x07, 0x00, 0x00, 0x00,
  0x03, 0x00, 0x00, 0x00, 0x00, 0x00, 0x00, 0x00, 0x04, 0x00, 0x00, 0x00,
  0x03, 0x00, 0x00, 0x00, 0x01, 0x00, 0x00, 0x00, 0x0a, 0x00, 0x00, 0x00,
  0x01, 0x00, 0x00, 0x00, 0x00, 0x00, 0x00, 0x00, 0x0b, 0x00, 0x00, 0x00,
  0x14, 0x04, 0x00, 0x00, 0xa4, 0x03, 0x00, 0x00, 0x34, 0x03, 0x00, 0x00,
  0xdc, 0x02, 0x00, 0x00, 0x90, 0x02, 0x00, 0x00, 0x44, 0x02, 0x00, 0x00,
  0xf8, 0x01, 0x00, 0x00, 0x68, 0x01, 0x00, 0x00, 0xd8, 0x00, 0x00, 0x00,
  0x60, 0x00, 0x00, 0x00, 0x04, 0x00, 0x00, 0x00, 0x2e, 0xfc, 0xff, 0xff,
  0x00, 0x00, 0x00, 0x01, 0x14, 0x00, 0x00, 0x00, 0x1c, 0x00, 0x00, 0x00,
  0x1c, 0x00, 0x00, 0x00, 0x0b, 0x00, 0x00, 0x00, 0x34, 0x00, 0x00, 0x00,
  0x02, 0x00, 0x00, 0x00, 0xff, 0xff, 0xff, 0xff, 0x02, 0x00, 0x00, 0x00,
  0x18, 0xfc, 0xff, 0xff, 0x19, 0x00, 0x00, 0x00, 0x53, 0x74, 0x61, 0x74,
  0x65, 0x66, 0x75, 0x6c, 0x50, 0x61, 0x72, 0x74, 0x69, 0x74, 0x69, 0x6f,
  0x6e, 0x65, 0x64, 0x43, 0x61, 0x6c, 0x6c, 0x3a, 0x30, 0x00, 0x00, 0x00,
  0x02, 0x00, 0x00, 0x00, 0x01, 0x00, 0x00, 0x00, 0x02, 0x00, 0x00, 0x00,
  0x86, 0xfc, 0xff, 0xff, 0x00, 0x00, 0x00, 0x01, 0x14, 0x00, 0x00, 0x00,
  0x1c, 0x00, 0x00, 0x00, 0x1c, 0x00, 0x00, 0x00, 0x0a, 0x00, 0x00, 0x00,
  0x50, 0x00, 0x00, 0x00, 0x02, 0x00, 0x00, 0x00, 0xff, 0xff, 0xff, 0xff,
  0x02, 0x00, 0x00, 0x00, 0x70, 0xfc, 0xff, 0xff, 0x34, 0x00, 0x00, 0x00,
  0x73, 0x65, 0x71, 0x75, 0x65, 0x6e, 0x74, 0x69, 0x61, 0x6c, 0x2f, 0x64,
  0x65, 0x6e, 0x73, 0x65, 0x5f, 0x34, 0x2f, 0x4d, 0x61, 0x74, 0x4d, 0x75,
  0x6c, 0x3b, 0x73, 0x65, 0x71, 0x75, 0x65, 0x6e, 0x74, 0x69, 0x61, 0x6c,
  0x2f, 0x64, 0x65, 0x6e, 0x73, 0x65, 0x5f, 0x34, 0x2f, 0x42, 0x69, 0x61,
  0x73, 0x41, 0x64, 0x64, 0x00, 0x00, 0x00, 0x00, 0x02, 0x00, 0x00, 0x00,
  0x01, 0x00, 0x00, 0x00, 0x02, 0x00, 0x00, 0x00, 0xfa, 0xfc, 0xff, 0xff,
  0x00, 0x00, 0x00, 0x01, 0x14, 0x00, 0x00, 0x00, 0x1c, 0x00, 0x00, 0x00,
  0x1c, 0x00, 0x00, 0x00, 0x09, 0x00, 0x00, 0x00, 0x68, 0x00, 0x00, 0x00,
  0x02, 0x00, 0x00, 0x00, 0xff, 0xff, 0xff, 0xff, 0x20, 0x00, 0x00, 0x00,
  0xe4, 0xfc, 0xff, 0xff, 0x4c, 0x00, 0x00, 0x00, 0x73, 0x65, 0x71, 0x75,
  0x65, 0x6e, 0x74, 0x69, 0x61, 0x6c, 0x2f, 0x64, 0x65, 0x6e, 0x73, 0x65,
  0x5f, 0x33, 0x2f, 0x4d, 0x61, 0x74, 0x4d, 0x75, 0x6c, 0x3b, 0x73, 0x65,
  0x71, 0x75, 0x65, 0x6e, 0x74, 0x69, 0x61, 0x6c, 0x2f, 0x64, 0x65, 0x6e,
  0x73, 0x65, 0x5f, 0x33, 0x2f, 0x52, 0x65, 0x6c, 0x75, 0x3b, 0x73, 0x65,
  0x71, 0x75, 0x65, 0x6e, 0x74, 0x69, 0x61, 0x6c, 0x2f, 0x64, 0x65, 0x6e,
  0x73, 0x65, 0x5f, 0x33, 0x2f, 0x42, 0x69, 0x61, 0x73, 0x41, 0x64, 0x64,
  0x00, 0x00, 0x00, 0x00, 0x02, 0x00, 0x00, 0x00, 0x01, 0x00, 0x00, 0x00,
  0x20, 0x00, 0x00, 0x00, 0x86, 0xfd, 0xff, 0xff, 0x00, 0x00, 0x00, 0x01,
  0x14, 0x00, 0x00, 0x00, 0x1c, 0x00, 0x00, 0x00, 0x1c, 0x00, 0x00, 0x00,
  0x08, 0x00, 0x00, 0x00, 0x68, 0x00, 0x00, 0x00, 0x02, 0x00, 0x00, 0x00,
  0xff, 0xff, 0xff, 0xff, 0x40, 0x00, 0x00, 0x00, 0x70, 0xfd, 0xff, 0xff,
  0x4c, 0x00, 0x00, 0x00, 0x73, 0x65, 0x71, 0x75, 0x65, 0x6e, 0x74, 0x69,
  0x61, 0x6c, 0x2f, 0x64, 0x65, 0x6e, 0x73, 0x65, 0x5f, 0x32, 0x2f, 0x4d,
  0x61, 0x74, 0x4d, 0x75, 0x6c, 0x3b, 0x73, 0x65, 0x71, 0x75, 0x65, 0x6e,
  0x74, 0x69, 0x61, 0x6c, 0x2f, 0x64, 0x65, 0x6e, 0x73, 0x65, 0x5f, 0x32,
  0x2f, 0x52, 0x65, 0x6c, 0x75, 0x3b, 0x73, 0x65, 0x71, 0x75, 0x65, 0x6e,
  0x74, 0x69, 0x61, 0x6c, 0x2f, 0x64, 0x65, 0x6e, 0x73, 0x65, 0x5f, 0x32,
  0x2f, 0x42, 0x69, 0x61, 0x73, 0x41, 0x64, 0x64, 0x00, 0x00, 0x00, 0x00,
  0x02, 0x00, 0x00, 0x00, 0x01, 0x00, 0x00, 0x00, 0x40, 0x00, 0x00, 0x00,
  0x7e, 0xfe, 0xff, 0xff, 0x00, 0x00, 0x00, 0x01, 0x10, 0x00, 0x00, 0x00,
  0x10, 0x00, 0x00, 0x00, 0x07, 0x00, 0x00, 0x00, 0x28, 0x00, 0x00, 0x00,
  0xec, 0xfd, 0xff, 0xff, 0x19, 0x00, 0x00, 0x00, 0x73, 0x65, 0x71, 0x75,
  0x65, 0x6e, 0x74, 0x69, 0x61, 0x6c, 0x2f, 0x64, 0x65, 0x6e, 0x73, 0x65,
  0x5f, 0x34, 0x2f, 0x4d, 0x61, 0x74, 0x4d, 0x75, 0x6c, 0x00, 0x00, 0x00,
  0x02, 0x00, 0x00, 0x00, 0x02, 0x00, 0x00, 0x00, 0x20, 0x00, 0x00, 0x00,
  0xc6, 0xfe, 0xff, 0xff, 0x00, 0x00, 0x00, 0x01, 0x10, 0x00, 0x00, 0x00,
  0x10, 0x00, 0x00, 0x00, 0x06, 0x00, 0x00, 0x00, 0x28, 0x00, 0x00, 0x00,
  0x34, 0xfe, 0xff, 0xff, 0x19, 0x00, 0x00, 0x00, 0x73, 0x65, 0x71, 0x75,
  0x65, 0x6e, 0x74, 0x69, 0x61, 0x6c, 0x2f, 0x64, 0x65, 0x6e, 0x73, 0x65,
  0x5f, 0x33, 0x2f, 0x4d, 0x61, 0x74, 0x4d, 0x75, 0x6c, 0x00, 0x00, 0x00,
  0x02, 0x00, 0x00, 0x00, 0x20, 0x00, 0x00, 0x00, 0x40, 0x00, 0x00, 0x00,
  0x0e, 0xff, 0xff, 0xff, 0x00, 0x00, 0x00, 0x01, 0x10, 0x00, 0x00, 0x00,
  0x10, 0x00, 0x00, 0x00, 0x05, 0x00, 0x00, 0x00, 0x28, 0x00, 0x00, 0x00,
  0x7c, 0xfe, 0xff, 0xff, 0x19, 0x00, 0x00, 0x00, 0x73, 0x65, 0x71, 0x75,
  0x65, 0x6e, 0x74, 0x69, 0x61, 0x6c, 0x2f, 0x64, 0x65, 0x6e, 0x73, 0x65,
  0x5f, 0x32, 0x2f, 0x4d, 0x61, 0x74, 0x4d, 0x75, 0x6c, 0x00, 0x00, 0x00,
  0x02, 0x00, 0x00, 0x00, 0x40, 0x00, 0x00, 0x00, 0x03, 0x00, 0x00, 0x00,
  0x56, 0xff, 0xff, 0xff, 0x00, 0x00, 0x00, 0x01, 0x10, 0x00, 0x00, 0x00,
  0x10, 0x00, 0x00, 0x00, 0x04, 0x00, 0x00, 0x00, 0x38, 0x00, 0x00, 0x00,
  0xc4, 0xfe, 0xff, 0xff, 0x29, 0x00, 0x00, 0x00, 0x73, 0x65, 0x71, 0x75,
  0x65, 0x6e, 0x74, 0x69, 0x61, 0x6c, 0x2f, 0x64, 0x65, 0x6e, 0x73, 0x65,
  0x5f, 0x32, 0x2f, 0x42, 0x69, 0x61, 0x73, 0x41, 0x64, 0x64, 0x2f, 0x52,
  0x65, 0x61, 0x64, 0x56, 0x61, 0x72, 0x69, 0x61, 0x62, 0x6c, 0x65, 0x4f,
  0x70, 0x00, 0x00, 0x00, 0x01, 0x00, 0x00, 0x00, 0x40, 0x00, 0x00, 0x00,
  0xaa, 0xff, 0xff, 0xff, 0x00, 0x00, 0x00, 0x01, 0x10, 0x00, 0x00, 0x00,
  0x10, 0x00, 0x00, 0x00, 0x03, 0x00, 0x00, 0x00, 0x38, 0x00, 0x00, 0x00,
  0x18, 0xff, 0xff, 0xff, 0x29, 0x00, 0x00, 0x00, 0x73, 0x65, 0x71, 0x75,
  0x65, 0x6e, 0x74, 0x69, 0x61, 0x6c, 0x2f, 0x64, 0x65, 0x6e, 0x73, 0x65,
  0x5f, 0x33, 0x2f, 0x42, 0x69, 0x61, 0x73, 0x41, 0x64, 0x64, 0x2f, 0x52,
  0x65, 0x61, 0x64, 0x56, 0x61, 0x72, 0x69, 0x61, 0x62, 0x6c, 0x65, 0x4f,
  0x70, 0x00, 0x00, 0x00, 0x01, 0x00, 0x00, 0x00, 0x20, 0x00, 0x00, 0x00,
  0x00, 0x00, 0x16, 0x00, 0x18, 0x00, 0x14, 0x00, 0x00, 0x00, 0x10, 0x00,
  0x0c, 0x00, 0x08, 0x00, 0x00, 0x00, 0x00, 0x00, 0x00, 0x00, 0x07, 0x00,
  0x16, 0x00, 0x00, 0x00, 0x00, 0x00, 0x00, 0x01, 0x10, 0x00, 0x00, 0x00,
  0x10, 0x00, 0x00, 0x00, 0x02, 0x00, 0x00, 0x00, 0x38, 0x00, 0x00, 0x00,
  0x84, 0xff, 0xff, 0xff, 0x29, 0x00, 0x00, 0x00, 0x73, 0x65, 0x71, 0x75,
  0x65, 0x6e, 0x74, 0x69, 0x61, 0x6c, 0x2f, 0x64, 0x65, 0x6e, 0x73, 0x65,
  0x5f, 0x34, 0x2f, 0x42, 0x69, 0x61, 0x73, 0x41, 0x64, 0x64, 0x2f, 0x52,
  0x65, 0x61, 0x64, 0x56, 0x61, 0x72, 0x69, 0x61, 0x62, 0x6c, 0x65, 0x4f,
  0x70, 0x00, 0x00, 0x00, 0x01, 0x00, 0x00, 0x00, 0x02, 0x00, 0x00, 0x00,
  0x00, 0x00, 0x16, 0x00, 0x1c, 0x00, 0x18, 0x00, 0x00, 0x00, 0x14, 0x00,
  0x10, 0x00, 0x0c, 0x00, 0x00, 0x00, 0x00, 0x00, 0x08, 0x00, 0x07, 0x00,
  0x16, 0x00, 0x00, 0x00, 0x00, 0x00, 0x00, 0x01, 0x14, 0x00, 0x00, 0x00,
  0x20, 0x00, 0x00, 0x00, 0x20, 0x00, 0x00, 0x00, 0x01, 0x00, 0x00, 0x00,
  0x38, 0x00, 0x00, 0x00, 0x02, 0x00, 0x00, 0x00, 0xff, 0xff, 0xff, 0xff,
  0x03, 0x00, 0x00, 0x00, 0x04, 0x00, 0x04, 0x00, 0x04, 0x00, 0x00, 0x00,
  0x19, 0x00, 0x00, 0x00, 0x73, 0x65, 0x72, 0x76, 0x69, 0x6e, 0x67, 0x5f,
  0x64, 0x65, 0x66, 0x61, 0x75, 0x6c, 0x74, 0x5f, 0x69, 0x6e, 0x70, 0x75,
  0x74, 0x5f, 0x32, 0x3a, 0x30, 0x00, 0x00, 0x00, 0x02, 0x00, 0x00, 0x00,
  0x01, 0x00, 0x00, 0x00, 0x03, 0x00, 0x00, 0x00, 0x02, 0x00, 0x00, 0x00,
  0x20, 0x00, 0x00, 0x00, 0x04, 0x00, 0x00, 0x00, 0xf4, 0xff, 0xff, 0xff,
  0x19, 0x00, 0x00, 0x00, 0x00, 0x00, 0x00, 0x19, 0x0c, 0x00, 0x0c, 0x00,
  0x0b, 0x00, 0x00, 0x00, 0x00, 0x00, 0x04, 0x00, 0x0c, 0x00, 0x00, 0x00,
  0x09, 0x00, 0x00, 0x00, 0x00, 0x00, 0x00, 0x09
};
